{
  "version": "1.0",
  "truncation": null,
  "padding": null,
  "added_tokens": [
    {
      "id": 0,
      "content": "[PAD]",
      "single_word": false,
      "lstrip": false,
      "rstrip": false,
      "normalized": false,
      "special": true
    },
    {
      "id": 1,
      "content": "[EOS]",
      "single_word": false,
      "lstrip": false,
      "rstrip": false,
      "normalized": false,
      "special": true
    },
    {
      "id": 2,
      "content": "[BOS]",
      "single_word": false,
      "lstrip": false,
      "rstrip": false,
      "normalized": false,
      "special": true
    },
    {
      "id": 3,
      "content": "[UNK]",
      "single_word": false,
      "lstrip": false,
      "rstrip": false,
      "normalized": false,
      "special": true
    }
  ],
  "normalizer": null,
  "pre_tokenizer": {
    "type": "ByteLevel",
    "add_prefix_space": false,
    "trim_offsets": true,
    "use_regex": true
  },
  "post_processor": {
    "type": "TemplateProcessing",
    "single": [
      {
        "SpecialToken": {
          "id": "[BOS]",
          "type_id": 0
        }
      },
      {
        "Sequence": {
          "id": "A",
          "type_id": 0
        }
      },
      {
        "SpecialToken": {
          "id": "[EOS]",
          "type_id": 0
        }
      }
    ],
    "pair": [
      {
        "Sequence": {
          "id": "A",
          "type_id": 0
        }
      },
      {
        "Sequence": {
          "id": "B",
          "type_id": 1
        }
      }
    ],
    "special_tokens": {
      "[BOS]": {
        "id": "[BOS]",
        "ids": [
          2
        ],
        "tokens": [
          "[BOS]"
        ]
      },
      "[EOS]": {
        "id": "[EOS]",
        "ids": [
          1
        ],
        "tokens": [
          "[EOS]"
        ]
      }
    }
  },
  "decoder": {
    "type": "ByteLevel",
    "add_prefix_space": true,
    "trim_offsets": true,
    "use_regex": true
  },
  "model": {
    "type": "BPE",
    "dropout": null,
    "unk_token": "[UNK]",
    "continuing_subword_prefix": null,
    "end_of_word_suffix": null,
    "fuse_unk": false,
    "byte_fallback": false,
    "ignore_merges": false,
    "vocab": {
      "[PAD]": 0,
      "[EOS]": 1,
      "[BOS]": 2,
      "[UNK]": 3,
      "!": 4,
      "\"": 5,
      "#": 6,
      "$": 7,
      "%": 8,
      "&": 9,
      "'": 10,
      "(": 11,
      ")": 12,
      "*": 13,
      "+": 14,
      ",": 15,
      "-": 16,
      ".": 17,
      "/": 18,
      "0": 19,
      "1": 20,
      "2": 21,
      "3": 22,
      "4": 23,
      "5": 24,
      "6": 25,
      "7": 26,
      "8": 27,
      "9": 28,
      ":": 29,
      ";": 30,
      "<": 31,
      "=": 32,
      ">": 33,
      "?": 34,
      "@": 35,
      "A": 36,
      "B": 37,
      "C": 38,
      "D": 39,
      "E": 40,
      "F": 41,
      "G": 42,
      "H": 43,
      "I": 44,
      "J": 45,
      "K": 46,
      "L": 47,
      "M": 48,
      "N": 49,
      "O": 50,
      "P": 51,
      "Q": 52,
      "R": 53,
      "S": 54,
      "T": 55,
      "U": 56,
      "V": 57,
      "W": 58,
      "X": 59,
      "Y": 60,
      "Z": 61,
      "[": 62,
      "\\": 63,
      "]": 64,
      "^": 65,
      "_": 66,
      "`": 67,
      "a": 68,
      "b": 69,
      "c": 70,
      "d": 71,
      "e": 72,
      "f": 73,
      "g": 74,
      "h": 75,
      "i": 76,
      "j": 77,
      "k": 78,
      "l": 79,
      "m": 80,
      "n": 81,
      "o": 82,
      "p": 83,
      "q": 84,
      "r": 85,
      "s": 86,
      "t": 87,
      "u": 88,
      "v": 89,
      "w": 90,
      "x": 91,
      "y": 92,
      "z": 93,
      "{": 94,
      "|": 95,
      "}": 96,
      "~": 97,
      "¡": 98,
      "¢": 99,
      "£": 100,
      "¤": 101,
      "¥": 102,
      "¦": 103,
      "§": 104,
      "¨": 105,
      "©": 106,
      "ª": 107,
      "«": 108,
      "¬": 109,
      "®": 110,
      "¯": 111,
      "°": 112,
      "±": 113,
      "²": 114,
      "³": 115,
      "´": 116,
      "µ": 117,
      "¶": 118,
      "·": 119,
      "¸": 120,
      "¹": 121,
      "º": 122,
      "»": 123,
      "¼": 124,
      "½": 125,
      "¾": 126,
      "¿": 127,
      "Â": 128,
      "Ã": 129,
      "Ä": 130,
      "Å": 131,
      "Ç": 132,
      "É": 133,
      "Ì": 134,
      "Î": 135,
      "Ï": 136,
      "á": 137,
      "â": 138,
      "ã": 139,
      "ä": 140,
      "å": 141,
      "æ": 142,
      "ç": 143,
      "è": 144,
      "é": 145,
      "ï": 146,
      "Ċ": 147,
      "Ġ": 148,
      "Ģ": 149,
      "ģ": 150,
      "Ĥ": 151,
      "ĥ": 152,
      "Ħ": 153,
      "ħ": 154,
      "Ĩ": 155,
      "ĩ": 156,
      "Ī": 157,
      "ī": 158,
      "Ĭ": 159,
      "ĭ": 160,
      "Į": 161,
      "į": 162,
      "İ": 163,
      "ı": 164,
      "Ĳ": 165,
      "ĳ": 166,
      "Ĵ": 167,
      "ĵ": 168,
      "Ķ": 169,
      "ķ": 170,
      "ĸ": 171,
      "Ĺ": 172,
      "ĺ": 173,
      "Ļ": 174,
      "ļ": 175,
      "Ľ": 176,
      "ľ": 177,
      "Ŀ": 178,
      "ŀ": 179,
      "Ł": 180,
      "ł": 181,
      "Ń": 182,
      "ï¼": 183,
      "ä¸": 184,
      "ãĢ": 185,
      "çļ": 186,
      "çļĦ": 187,
      "ï¼Į": 188,
      "ãĢĤ": 189,
      "**": 190,
      "åı": 191,
      "åħ": 192,
      "åĪ": 193,
      "çĶ": 194,
      "äº": 195,
      "ï¼ļ": 196,
      "è¿": 197,
      "ä»": 198,
      "å®": 199,
      "è¯": 200,
      "ä½": 201,
      "åĬ": 202,
      "åľ": 203,
      "ç»": 204,
      "æľ": 205,
      "åĲ": 206,
      "è§": 207,
      "æĺ": 208,
      "åŃ": 209,
      "##": 210,
      "éĢ": 211,
      "Ġ**": 212,
      "åº": 213,
      "ä¹": 214,
      "å¤": 215,
      "æĪ": 216,
      "æķ": 217,
      "æĸ": 218,
      "å¼": 219,
      "åĴ": 220,
      "åĴĮ": 221,
      "ä¸Ń": 222,
      "è®": 223,
      "æĢ": 224,
      "æĺ¯": 225,
      "âĢ": 226,
      "åĮ": 227,
      "éĩ": 228,
      "ãĢģ": 229,
      "çĶ¨": 230,
      "¦Ĥ": 231,
      "çĲ": 232,
      "åľ¨": 233,
      "ä¸Ģ": 234,
      "è¡": 235,
      "åĽ": 236,
      "å¿": 237,
      "èĥ": 238,
      "æķ°": 239,
      "çĲĨ": 240,
      "è§£": 241,
      "å¸": 242,
      "Ġ\\": 243,
      "åĪĨ": 244,
      "æ°": 245,
      "æĹ": 246,
      "æ³": 247,
      "**ï¼ļ": 248,
      "æŀ": 249,
      "ä¸º": 250,
      "å¯": 251,
      "çī": 252,
      "Ġ-": 253,
      "è¿ĩ": 254,
      "¾ĭ": 255,
      "åŃ¦": 256,
      "å®ļ": 257,
      "æĿ": 258,
      "å°": 259,
      "åĨ": 260,
      "æł": 261,
      "èĥ½": 262,
      "åĩ": 263,
      "çİ": 264,
      "é¢": 265,
      "åĮĸ": 266,
      "å¹": 267,
      "è¦": 268,
      "çĶŁ": 269,
      "è¦ģ": 270,
      "çŃ": 271,
      "å½": 272,
      "ä¼": 273,
      "å¦Ĥ": 274,
      "éĢļ": 275,
      "åĬ¨": 276,
      "ç§": 277,
      "ï¼ī": 278,
      "çĽ": 279,
      "ä¸İ": 280,
      "æĢ§": 281,
      "å¼ı": 282,
      "ä»¥": 283,
      "ï¼Ī": 284,
      "åºĶ": 285,
      "ä½ĵ": 286,
      "ä¾ĭ": 287,
      "ä¸ª": 288,
      "éĹ": 289,
      "è´": 290,
      "æİ": 291,
      "åİ": 292,
      "èĢ": 293,
      "æ³ķ": 294,
      "æĹ¶": 295,
      "é¢ĺ": 296,
      "æĶ": 297,
      "âĢľ": 298,
      "âĢĿ": 299,
      "åŁ": 300,
      "æı": 301,
      "æľī": 302,
      "æĸ¹": 303,
      "çĤ": 304,
      "ä¸į": 305,
      "éĩı": 306,
      "çĤ¹": 307,
      "æŃ": 308,
      "ç¡": 309,
      "ç¤": 310,
      "åı¯": 311,
      "çī©": 312,
      "æµ": 313,
      "åº¦": 314,
      "åį": 315,
      "éĢļè¿ĩ": 316,
      "Ġ1": 317,
      "æĪĸ": 318,
      "æĪĲ": 319,
      "äºĨ": 320,
      "çŃī": 321,
      "åľ°": 322,
      "è¾": 323,
      "ä½ľ": 324,
      "Ġ2": 325,
      "Ġ=": 326,
      "åħ³": 327,
      "å¯¹": 328,
      "æĦ": 329,
      "äºİ": 330,
      "åĬĽ": 331,
      "åŃĲ": 332,
      "åĲĪ": 333,
      "æĮ": 334,
      "è¿Ļ": 335,
      "ç¨": 336,
      "ç®": 337,
      "è¡¨": 338,
      "è¯Ń": 339,
      "ç³": 340,
      "å¸¸": 341,
      "éĩį": 342,
      "åħ¶": 343,
      "åŀ": 344,
      "å·": 345,
      "ä¿": 346,
      "éĿ": 347,
      "å¾": 348,
      "åıĺ": 349,
      "æį": 350,
      "çĶµ": 351,
      "ç³»": 352,
      "å±": 353,
      "åŀĭ": 354,
      "èĩ": 355,
      "æĸĩ": 356,
      "è¯į": 357,
      "ç»ĵ": 358,
      "éĶ": 359,
      "åŁº": 360,
      "å®ŀ": 361,
      "æī": 362,
      "ç¨ĭ": 363,
      "åħ¬": 364,
      "çº": 365,
      "ä¹ī": 366,
      "åĲĮ": 367,
      "çİ°": 368,
      "ä¸»": 369,
      "äºº": 370,
      "ç¡®": 371,
      "æĬ": 372,
      "è¡Į": 373,
      "è´¨": 374,
      "ï¼ļ**": 375,
      "ĠĠ": 376,
      "åı¥": 377,
      "éĻ": 378,
      "åıĳ": 379,
      "åĽ½": 380,
      "æĭ": 381,
      "å¿ĥ": 382,
      "æ¦Ĥ": 383,
      "æ¯": 384,
      "çĲĨè§£": 385,
      "ä¼ļ": 386,
      "æľ¬": 387,
      "éĹ´": 388,
      "ç¤º": 389,
      "çŁ": 390,
      "æĿ¥": 391,
      "Ġ3": 392,
      "æĥ": 393,
      "åĵ": 394,
      "è¿Ľ": 395,
      "æ±": 396,
      "åĪĻ": 397,
      "åĢ": 398,
      "åıĬ": 399,
      "ï¼Ľ": 400,
      "åĪ¶": 401,
      "åı¯ä»¥": 402,
      "æĦı": 403,
      "å½¢": 404,
      "åİŁ": 405,
      "è®¡": 406,
      "åıį": 407,
      "####": 408,
      "è½": 409,
      "å¹¶": 410,
      "å¤§": 411,
      "æ°Ķ": 412,
      "ä¸Ĭ": 413,
      "ä¸ŃçļĦ": 414,
      "å¿µ": 415,
      "æį®": 416,
      "æ´": 417,
      "è¿Ĳ": 418,
      "è°": 419,
      "åĩº": 420,
      "æıĲ": 421,
      "éĩįè¦ģ": 422,
      "ä¸ĭ": 423,
      "åºĶçĶ¨": 424,
      "åĬł": 425,
      "æŀĲ": 426,
      "ç§į": 427,
      "ç®Ĺ": 428,
      "æ¨": 429,
      "æ¦Ĥå¿µ": 430,
      "æł¸": 431,
      "æ¨¡": 432,
      "æĽ": 433,
      "æĮĩ": 434,
      "åĲĳ": 435,
      "é¡": 436,
      "æŀĦ": 437,
      "###": 438,
      "ä¹ł": 439,
      "åĪ°": 440,
      "ä½¿": 441,
      "å¢": 442,
      "æł¸å¿ĥ": 443,
      "ä»¬": 444,
      "åħ¬å¼ı": 445,
      "ä¹Ī": 446,
      "ç´": 447,
      "çī¹": 448,
      "åĨħ": 449,
      "éĺ": 450,
      "çĽ¸": 451,
      "éĢŁ": 452,
      "ç»ı": 453,
      "é«": 454,
      "æ·": 455,
      "åģ": 456,
      "ä»İ": 457,
      "æŁ": 458,
      "åĳ": 459,
      "é«ĺ": 460,
      "éĥ": 461,
      "ç«": 462,
      "Ġ+": 463,
      "èĩª": 464,
      "éħ": 465,
      "å¹³": 466,
      "æĶ¿": 467,
      "æ²": 468,
      "ä¸Ģä¸ª": 469,
      "èµ": 470,
      "ç±": 471,
      "èĢĥ": 472,
      "å°Ĩ": 473,
      "æŃ£": 474,
      "åĽł": 475,
      "ä½į": 476,
      "ä»£": 477,
      "è¯Ĩ": 478,
      "å¤ļ": 479,
      "äºĽ": 480,
      "æ¸": 481,
      "çŁ¥": 482,
      "è§ģ": 483,
      "è§Ħ": 484,
      "æĽ´": 485,
      "ä¹ĭ": 486,
      "æĢģ": 487,
      "å®ĥ": 488,
      "å¥": 489,
      "ä»¶": 490,
      "å®ļä¹ī": 491,
      "åŃ¦ä¹ł": 492,
      "æĥħ": 493,
      "æ±Ĥ": 494,
      "å¼º": 495,
      "å±ķ": 496,
      "åħ¥": 497,
      "éĹ®": 498,
      "æ¶": 499,
      "äºĭ": 500,
      "åĪĨæŀĲ": 501,
      "æĻ": 502,
      "è·": 503,
      "éĶ®": 504,
      "çº¿": 505,
      "éĽ": 506,
      "æĺİ": 507,
      "ç±»": 508,
      "å¯¼": 509,
      "åľº": 510,
      "å¸¸è§ģ": 511,
      "éģ": 512,
      "è®¡ç®Ĺ": 513,
      "è®°": 514,
      "å¾ĭ": 515,
      "æ°´": 516,
      "çİĩ": 517,
      "åħ·": 518,
      "éĿ¢": 519,
      "åĢ¼": 520,
      "åıĺåĮĸ": 521,
      "ç»Ł": 522,
      "åĿ": 523,
      "æ¯Ķ": 524,
      "åıįåºĶ": 525,
      "æľº": 526,
      "ä¿Ŀ": 527,
      "éľ": 528,
      "æĪĳ": 529,
      "½æķ°": 530,
      "åĩ½æķ°": 531,
      "å½±": 532,
      "Ġ\\(": 533,
      "ç´ł": 534,
      "æº": 535,
      "åĲİ": 536,
      "è°ĥ": 537,
      "åĮº": 538,
      "åĵį": 539,
      "è¿ĩç¨ĭ": 540,
      "æµģ": 541,
      "ç½": 542,
      "è®¾": 543,
      "è¾¾": 544,
      "è±": 545,
      "èĢĮ": 546,
      "æ´»": 547,
      "å°ı": 548,
      "å½±åĵį": 549,
      "åĬ©": 550,
      "å®¹": 551,
      "éľĢ": 552,
      "in": 553,
      "ä¸įåĲĮ": 554,
      "ï¼Ł": 555,
      "è±¡": 556,
      "åħ³ç³»": 557,
      "åįķ": 558,
      "è®º": 559,
      "ç¤¾": 560,
      "he": 561,
      "äº§": 562,
      "ç»ĵæŀĦ": 563,
      "åŃ¦çĶŁ": 564,
      "è½¬": 565,
      "æģ": 566,
      "æ³¨": 567,
      "ä½¿çĶ¨": 568,
      "ä½ľçĶ¨": 569,
      "ä¾": 570,
      "ä¾ĭå¦Ĥ": 571,
      "æ°ĳ": 572,
      "é¡¹": 573,
      "ç¦": 574,
      "æŀľ": 575,
      "éĹ®é¢ĺ": 576,
      "è¿Ľè¡Į": 577,
      "ç¤¾ä¼ļ": 578,
      "Ĩåı": 579,
      "åħ³éĶ®": 580,
      "ä»Ģ": 581,
      "ä»Ģä¹Ī": 582,
      "Ġ\\)": 583,
      "ra": 584,
      "èī": 585,
      "ç©": 586,
      "ä¼ł": 587,
      "è¯¯": 588,
      "éĥ¨": 589,
      "åĪĹ": 590,
      "åĮħ": 591,
      "ç¦»": 592,
      "ä¾ĭé¢ĺ": 593,
      "è¿ĻäºĽ": 594,
      "åŁºæľ¬": 595,
      "æĦŁ": 596,
      "çİ¯": 597,
      "ç¬": 598,
      "ä¸¤": 599,
      "æİ¨": 600,
      "åħ¸": 601,
      "å¤į": 602,
      "ç»Ĩ": 603,
      "éª": 604,
      "éĢī": 605,
      "éķ": 606,
      "æĪĳä»¬": 607,
      "æĿ¡": 608,
      "ç»Ħ": 609,
      "èĬ": 610,
      "æłĩ": 611,
      "åī": 612,
      "éĻħ": 613,
      "æķ°æį®": 614,
      "æł¹": 615,
      "æĢĿ": 616,
      "\\)": 617,
      "è¿ĲåĬ¨": 618,
      "çĶ±": 619,
      "åıĳå±ķ": 620,
      "å·¥": 621,
      "å»": 622,
      "çķ": 623,
      "åĨ³": 624,
      "Ġt": 625,
      "æĺ¯æĮĩ": 626,
      "æµİ": 627,
      "è¡¨è¾¾": 628,
      "Ġa": 629,
      "ç»ıæµİ": 630,
      "ä½ķ": 631,
      "çĽ®": 632,
      "åĪ©": 633,
      "ä¸ŃåĽ½": 634,
      "æĭ¬": 635,
      "å½ĵ": 636,
      "å¢ŀ": 637,
      "æĸ¹æ³ķ": 638,
      "çĦ": 639,
      "åħĥ": 640,
      "éĶĻ": 641,
      "æĬĢ": 642,
      "å®¶": 643,
      "åĽ¾": 644,
      "çŁ¥è¯Ĩ": 645,
      "æ®": 646,
      "æĸŃ": 647,
      "æ¨¡åŀĭ": 648,
      "å»º": 649,
      "æķĪ": 650,
      "ĊĠĠ": 651,
      "å¾Ĺ": 652,
      "éĽĨ": 653,
      "ä¸ī": 654,
      "åħ¸åŀĭ": 655,
      "éķ¿": 656,
      "te": 657,
      "è¡¨ç¤º": 658,
      "å¼Ģ": 659,
      "çĽ´": 660,
      "å¤Ł": 661,
      "åĮħæĭ¬": 662,
      "æľĢ": 663,
      "æķ´": 664,
      "éĢŁåº¦": 665,
      "æľŁ": 666,
      "è®°å¿": 667,
      "æ³¨æĦı": 668,
      "èĬĤ": 669,
      "åĪ«": 670,
      "æīĢ": 671,
      "è¿°": 672,
      "ä¿¡": 673,
      "èĢħ": 674,
      "Ġ4": 675,
      "è§Ĵ": 676,
      "è§Ĥ": 677,
      "æı¡": 678,
      "åģļ": 679,
      "å®ŀéĻħ": 680,
      "æİ¥": 681,
      "æĻ¯": 682,
      "å¤Ħ": 683,
      "çĦ¶": 684,
      "ç¡Ģ": 685,
      "åŁºç¡Ģ": 686,
      "æ²»": 687,
      "èĥ½å¤Ł": 688,
      "æł¸å¿ĥæ¦Ĥå¿µ": 689,
      "çĬ": 690,
      "è¶": 691,
      "ç«ĭ": 692,
      "rac": 693,
      "ç³»ç»Ł": 694,
      "åĨĻ": 695,
      "å¥½": 696,
      "åħ¸åŀĭä¾ĭé¢ĺ": 697,
      "æĮģ": 698,
      "ä¸ļ": 699,
      "ç®Ģ": 700,
      "}{": 701,
      "éļ": 702,
      "å¸®": 703,
      "çĬ¶": 704,
      "¨Ģ": 705,
      "è¨Ģ": 706,
      "æ·±": 707,
      "åĨħå®¹": 708,
      "frac": 709,
      "ç§¯": 710,
      "èī²": 711,
      "âĤ": 712,
      "Ġ###": 713,
      "æ¬": 714,
      "æĿ¡ä»¶": 715,
      "å¸®åĬ©": 716,
      "è¯Ģ": 717,
      "æİĮ": 718,
      "\\(": 719,
      "£è¯Ģ": 720,
      "ï¼īãĢĤ": 721,
      "ä½ł": 722,
      "æŁĲ": 723,
      "æİĮæı¡": 724,
      "è¦ģçĤ¹": 725,
      "ä¹ĭéĹ´": 726,
      "æ°§": 727,
      "éħį": 728,
      "èģ": 729,
      "åĪ¤": 730,
      "æŃ¥": 731,
      "è¿ĺ": 732,
      "æł¹æį®": 733,
      "æľ¯": 734,
      "--": 735,
      "æ¡": 736,
      "æĿĥ": 737,
      "åħ±": 738,
      "éĶĻè¯¯": 739,
      "æĹ¶éĹ´": 740,
      "å¢ĥ": 741,
      "æıı": 742,
      "ç¼": 743,
      "èĭ": 744,
      "çĲĥ": 745,
      "ä»·": 746,
      "åºı": 747,
      "é£": 748,
      "è¯´": 749,
      "åħ¨": 750,
      "Ġ####": 751,
      "åıĬåħ¶": 752,
      "çŃĸ": 753,
      "å¤ĸ": 754,
      "çĥ": 755,
      "äº¤": 756,
      "åĮĸåŃ¦": 757,
      "çľ": 758,
      "æĸ°": 759,
      "æĢ»": 760,
      "äºĮ": 761,
      "åĬ¡": 762,
      "ç½®": 763,
      "çī©ä½ĵ": 764,
      "è§ĦåĪĻ": 765,
      "å®Į": 766,
      "åı¯èĥ½": 767,
      "æŃ¤": 768,
      "éªĮ": 769,
      "èĥŀ": 770,
      "å¦Ĥä½ķ": 771,
      "æĸ¹åĲĳ": 772,
      "å¤©": 773,
      "æºĲ": 774,
      "åĩĨ": 775,
      "ä¸»è¦ģ": 776,
      "çŃĶ": 777,
      "åı¥åŃĲ": 778,
      "ä»ĸ": 779,
      "ç¤ºä¾ĭ": 780,
      "æĶ¹": 781,
      "è®°å¿Ĩåı": 782,
      "è®°å¿Ĩåı£è¯Ģ": 783,
      "ç»Ĩèĥŀ": 784,
      "ç©º": 785,
      "éĵ": 786,
      "æģ¯": 787,
      "éĿŀ": 788,
      "on": 789,
      "ç²": 790,
      "æ®µ": 791,
      "ä¸Ģç§į": 792,
      "éĢīæĭ": 793,
      "åŁŁ": 794,
      "åĩı": 795,
      "åĪ¤æĸŃ": 796,
      "åħ·ä½ĵ": 797,
      "åİ»": 798,
      "èĩ´": 799,
      "æ¯ı": 800,
      "Ġå¸¸è§ģ": 801,
      "ï¼īï¼Į": 802,
      "ä»¥åıĬ": 803,
      "me": 804,
      "åĬŁ": 805,
      "èĥ½åĬĽ": 806,
      "è·¯": 807,
      "è¢": 808,
      "æĸ¹å¼ı": 809,
      "å¼ķ": 810,
      "at": 811,
      "éĢīæĭ©": 812,
      "ĠéĢļè¿ĩ": 813,
      "Ġb": 814,
      "å°±": 815,
      "çł": 816,
      "ä¿¡æģ¯": 817,
      "å·®": 818,
      "æĥ³": 819,
      "çĶ¨äºİ": 820,
      "æŀģ": 821,
      "Ġ(": 822,
      "åħī": 823,
      "æŃ£ç¡®": 824,
      "ç±»åŀĭ": 825,
      "åĻ": 826,
      "è¡¡": 827,
      "çĿ": 828,
      "è¯»": 829,
      "å½¢æĪĲ": 830,
      "å®ļå¾ĭ": 831,
      "æ¸©": 832,
      "è¢«": 833,
      "xt": 834,
      "åŃĺ": 835,
      "èĻ": 836,
      "çī©è´¨": 837,
      "çĶŁæĪĲ": 838,
      "ï¼Ł**": 839,
      "æį¢": 840,
      "éħ¸": 841,
      "å¸¦": 842,
      "éĥ¨åĪĨ": 843,
      "æĶ¶": 844,
      "åŃĹ": 845,
      "åĽ½å®¶": 846,
      "æº¶": 847,
      "éľĢè¦ģ": 848,
      "æĶ¾": 849,
      "ä¼ĺ": 850,
      "å¹´": 851,
      "ç§»": 852,
      "ç»ĥ": 853,
      "ä¹Ł": 854,
      "ç¡®ä¿Ŀ": 855,
      "åĨµ": 856,
      "ç»ĵåĲĪ": 857,
      "æĽ´å¥½": 858,
      "text": 859,
      "åĻ¨": 860,
      "or": 861,
      "éĢĤ": 862,
      "å½¢å¼ı": 863,
      "å¤ĦçĲĨ": 864,
      "æĸ¹ç¨ĭ": 865,
      "ç¥": 866,
      "Ġåľ¨": 867,
      "åħĥç´ł": 868,
      "Ġs": 869,
      "æ¬¡": 870,
      "æĽ´å¥½åľ°": 871,
      "è¯ģ": 872,
      "åıĳçĶŁ": 873,
      "åĲ¦": 874,
      "çļĦåŁºæľ¬": 875,
      "åıĸ": 876,
      "ä¾Ľ": 877,
      "ç¢": 878,
      "èĩªçĦ¶": 879,
      "åĵģ": 880,
      "ç¬¬": 881,
      "éĢļå¸¸": 882,
      "æĶ¿æ²»": 883,
      "è´¨éĩı": 884,
      "ä¹ĭéĹ´çļĦ": 885,
      "åīį": 886,
      "Ġ\\]": 887,
      "èµĦ": 888,
      "åħ¶ä¸Ń": 889,
      "è¯Ńè¨Ģ": 890,
      "åĲĦ": 891,
      "åİĭ": 892,
      "è¾ĵ": 893,
      "åĿĹ": 894,
      "éĿ©": 895,
      "èĢĥæ³ķ": 896,
      "ä»ħ": 897,
      "æĹł": 898,
      "æĥħåĨµ": 899,
      "æµĭ": 900,
      "æ¡Ī": 901,
      "å±ŀ": 902,
      "åĪ©çĶ¨": 903,
      "é¦": 904,
      "æııè¿°": 905,
      "éĥ½": 906,
      "çģ": 907,
      "æĬĢæľ¯": 908,
      "çļĦéĩįè¦ģ": 909,
      "æ¸ħ": 910,
      "Ġâ": 911,
      "ç»´": 912,
      "åľºæĻ¯": 913,
      "Ġc": 914,
      "åĳ½": 915,
      "ç£": 916,
      "æ°§åĮĸ": 917,
      "å¾ģ": 918,
      "re": 919,
      "èĥ½éĩı": 920,
      "å®ļçĲĨ": 921,
      "ti": 922,
      "åĲį": 923,
      "æĢ§è´¨": 924,
      "çİ¯å¢ĥ": 925,
      "èģĶ": 926,
      "é£İ": 927,
      "çĥŃ": 928,
      "åİŁçĲĨ": 929,
      "»è¾": 930,
      "åıĹ": 931,
      "åĳ¨": 932,
      "åħĪ": 933,
      "å¸Ĥ": 934,
      "ä¸Ķ": 935,
      "èµ·": 936,
      "åħ³éĶ®åħ¬å¼ı": 937,
      "è¯¥": 938,
      "æł¼": 939,
      "åĬ¨è¯į": 940,
      "çĶŁæ´»": 941,
      "æł·": 942,
      "é¢Ħ": 943,
      "è£": 944,
      "åı·": 945,
      "éĢ»è¾": 946,
      "ä¸ºä»Ģä¹Ī": 947,
      "éĢ»è¾ĳ": 948,
      "ä»İåı¥": 949,
      "åį³": 950,
      "çķ¥": 951,
      "ãĢĤâĢĿ": 952,
      "å°ĳ": 953,
      "æıĲé«ĺ": 954,
      "åĥ": 955,
      "Ġf": 956,
      "ç¦»åŃĲ": 957,
      "åıĤ": 958,
      "ç§ĳ": 959,
      "è¿ŀ": 960,
      "æĪĺ": 961,
      "æĸĩåĮĸ": 962,
      "åįĩ": 963,
      "å¹³è¡¡": 964,
      "çİ°è±¡": 965,
      "ç»Ń": 966,
      "ä½įç½®": 967,
      "æĢİ": 968,
      "è§£åĨ³": 969,
      "ä¸¤ä¸ª": 970,
      "ä»ĭ": 971,
      "ç£ģ": 972,
      "ç»Ļ": 973,
      "çĿĢ": 974,
      "æķĻ": 975,
      "åĥı": 976,
      "Ġ0": 977,
      "èĩ³": 978,
      "æĥħæĦŁ": 979,
      "æ¶²": 980,
      "äºĨè§£": 981,
      "ä»»": 982,
      "äº§çĶŁ": 983,
      "æĢİä¹Ī": 984,
      "éĴ": 985,
      "ta": 986,
      "å¸ĥ": 987,
      "å¯¼èĩ´": 988,
      "æĿĤ": 989,
      "éģĵ": 990,
      "ä¸ºä»Ģä¹Īéĩįè¦ģ": 991,
      "Ġm": 992,
      "Ġåħ¸åŀĭä¾ĭé¢ĺ": 993,
      "æĺ¯åĲ¦": 994,
      "ä½Ĩ": 995,
      "åİĨåı": 996,
      "åİĨåı²": 997,
      "æĢİä¹Īåģļ": 998,
      "ãĢĲ": 999,
      "ãĢĳ": 1000,
      "åĬ¿": 1001,
      "å¯Ł": 1002,
      "å·²": 1003,
      "èį": 1004,
      "è§Ħå¾ĭ": 1005,
      "ç¥ŀ": 1006,
      "è®¾è®¡": 1007,
      "ĨĴ": 1008,
      "Ġ5": 1009,
      "æĹ¥": 1010,
      "Ġw": 1011,
      "äºĴ": 1012,
      "çļĦå½±åĵį": 1013,
      "å§": 1014,
      "é¢ĺçĽ®": 1015,
      "ä¸įä»ħ": 1016,
      "åĪĿ": 1017,
      "æıĲä¾Ľ": 1018,
      "ï¼ļâĢľ": 1019,
      "è¯Ĺ": 1020,
      "åĪ¶åº¦": 1021,
      "çĬ¶æĢģ": 1022,
      "éĩĳ": 1023,
      "ç¬¦": 1024,
      "ç®Ģåįķ": 1025,
      "en": 1026,
      "æŁĵ": 1027,
      "ç«ł": 1028,
      "Ġx": 1029,
      "æīĭ": 1030,
      "ç¾": 1031,
      "åĩĨç¡®": 1032,
      "Ġ$": 1033,
      "å°Ħ": 1034,
      "åħ·æľī": 1035,
      "è´Ł": 1036,
      "æĺĵ": 1037,
      "æķ°åŃ¦": 1038,
      "èĤ": 1039,
      "è®®": 1040,
      "è®²": 1041,
      "åĽĽ": 1042,
      "å¼Ĥ": 1043,
      "è®¤": 1044,
      "èĲ": 1045,
      "æ´»åĬ¨": 1046,
      "è§£æŀĲ": 1047,
      "å¤įæĿĤ": 1048,
      "çĭ": 1049,
      "ä»Ģä¹Īæĺ¯": 1050,
      "æ¶Ī": 1051,
      "è¾ĥ": 1052,
      "Ġthe": 1053,
      "æľºåĪ¶": 1054,
      "è¯ķ": 1055,
      "åºĶçĶ¨åľºæĻ¯": 1056,
      "is": 1057,
      "çī¹å¾ģ": 1058,
      "çŁ¥è¯ĨçĤ¹": 1059,
      "ĠA": 1060,
      "å®ŀçİ°": 1061,
      "è¯Ŀ": 1062,
      "åģĩ": 1063,
      "âĤĤ": 1064,
      "æ¨¡åĿĹ": 1065,
      "åĲĮæĹ¶": 1066,
      "ĠâĢľ": 1067,
      "æ¦Ĥçİĩ": 1068,
      "å®ĥä»¬": 1069,
      "çĻ": 1070,
      "æľį": 1071,
      "å¤±": 1072,
      "00": 1073,
      "çī¹å®ļ": 1074,
      "ä¼ĺåĮĸ": 1075,
      "ï¼ĮâĢľ": 1076,
      "è¿Ļä¸Ģ": 1077,
      "æĵ": 1078,
      "åħį": 1079,
      "æĶ¯": 1080,
      "å¦Ĥæŀľ": 1081,
      "è¿ĲçĶ¨": 1082,
      "å¼ºè°ĥ": 1083,
      "åĲ«": 1084,
      "éĩĬ": 1085,
      "èµĦæºĲ": 1086,
      "æĸĩç«ł": 1087,
      "ç½ĳ": 1088,
      "äººæ°ĳ": 1089,
      "ç»ĵæŀľ": 1090,
      "æĦıä¹ī": 1091,
      "äºĭé¡¹": 1092,
      "æ»": 1093,
      "é¢Ĩ": 1094,
      "æŁ¥": 1095,
      "çĭ¬": 1096,
      "Ġè¦ģçĤ¹": 1097,
      "è¯ĨåĪ«": 1098,
      "æ³¨æĦıäºĭé¡¹": 1099,
      "le": 1100,
      "ä¿ĥ": 1101,
      "ve": 1102,
      "ç¡®å®ļ": 1103,
      "è¦ģæ±Ĥ": 1104,
      "çĽ´æİ¥": 1105,
      "éĢĴ": 1106,
      "åľ°çĲĥ": 1107,
      "çļĦè¿ĩç¨ĭ": 1108,
      "åŃ£": 1109,
      "è®²è§£": 1110,
      "æī¾": 1111,
      "æ··": 1112,
      "çī©çĲĨ": 1113,
      "éĻį": 1114,
      "æıĲç¤º": 1115,
      "ä»·åĢ¼": 1116,
      "æİĴ": 1117,
      "éĩĮ": 1118,
      "å£": 1119,
      "åºľ": 1120,
      "åĢĻ": 1121,
      "é¦ĸ": 1122,
      "åĬŁèĥ½": 1123,
      "_{": 1124,
      "éĺħ": 1125,
      "ç§°": 1126,
      "ç»ĦæĪĲ": 1127,
      "âĢĿï¼Į": 1128,
      "æĶ¿åºľ": 1129,
      "åĿĩ": 1130,
      "æģĴ": 1131,
      "å¯¹äºİ": 1132,
      "çļĦåŁºç¡Ģ": 1133,
      "ä¸ĬçļĦ": 1134,
      "çķĮ": 1135,
      "çİ°åľ¨": 1136,
      "åĪĨåŃĲ": 1137,
      "éļı": 1138,
      "éŁ": 1139,
      "æĺ¾": 1140,
      "åĲĳéĩı": 1141,
      "âĢĶ": 1142,
      "ar": 1143,
      "éĺħè¯»": 1144,
      "äººçī©": 1145,
      "éĻĲ": 1146,
      "éĤ": 1147,
      "Ġ\\[": 1148,
      "åģĩè®¾": 1149,
      "\\[": 1150,
      "ä¹¦": 1151,
      "ç¨³": 1152,
      "å¾ª": 1153,
      "èĭ±": 1154,
      "ç²¾": 1155,
      "å¾®": 1156,
      "å§ĭ": 1157,
      "åĪĽ": 1158,
      "æ¢": 1159,
      "æĸ½": 1160,
      "æĢ§åĴĮ": 1161,
      "th": 1162,
      "Ġp": 1163,
      "åı¤": 1164,
      "âĢĿãĢĤ": 1165,
      "åįĬ": 1166,
      "çĲĨè§£åĴĮ": 1167,
      "æĢĿæĥ³": 1168,
      "æĺ¯ä¸Ģç§į": 1169,
      "å·§": 1170,
      "è¯´æĺİ": 1171,
      "Ġå¸¸è§ģèĢĥæ³ķ": 1172,
      "å±Ĥ": 1173,
      "åĽłç´ł": 1174,
      "å®ĮæĪĲ": 1175,
      "æĶ¿çŃĸ": 1176,
      "æīĢæľī": 1177,
      "éĩĳå±ŀ": 1178,
      "è®¨": 1179,
      "çĶµåŃĲ": 1180,
      "åŁºåĽł": 1181,
      "ĠC": 1182,
      "ä¿ĥè¿Ľ": 1183,
      "æ¶ī": 1184,
      "æ¸©åº¦": 1185,
      "æº¶æ¶²": 1186,
      "åĳ¨æľŁ": 1187,
      "çĽ¸åħ³": 1188,
      "çĸ": 1189,
      "å¹¿": 1190,
      "æ¯Ķå¦Ĥ": 1191,
      "Ġæĺ¯": 1192,
      "Ġåħ³éĶ®åħ¬å¼ı": 1193,
      "å¿«": 1194,
      "æĹ¨": 1195,
      "è¿Ļç§į": 1196,
      "çļĦåıĺåĮĸ": 1197,
      "åķ": 1198,
      "è¿ĳ": 1199,
      "Ġd": 1200,
      "è°ĵ": 1201,
      "æ¯ıä¸ª": 1202,
      "NA": 1203,
      "éĻ¤": 1204,
      "çĶŁäº§": 1205,
      "el": 1206,
      "åĪĨéħį": 1207,
      "æľª": 1208,
      "è¶³": 1209,
      "æ°ĶåĢĻ": 1210,
      "å¯Ĩ": 1211,
      "è¿Ļä¸ª": 1212,
      "çº§": 1213,
      "åĬ©äºİ": 1214,
      "äºī": 1215,
      "Ġè®°å¿Ĩåı£è¯Ģ": 1216,
      "åĲ¸": 1217,
      "æİ¢": 1218,
      "æľīåĬ©äºİ": 1219,
      "äºĭä»¶": 1220,
      "åľ°åĮº": 1221,
      "ç¨³å®ļ": 1222,
      "ou": 1223,
      "çī¹çĤ¹": 1224,
      "ĠâĨĴ": 1225,
      "è§Ĩ": 1226,
      "è®Ń": 1227,
      "åĪĨè§£": 1228,
      "æŁĵèī²": 1229,
      "ä¹ĺ": 1230,
      "ç¼ĸ": 1231,
      "å®ŀéªĮ": 1232,
      "ä¸»ä¹ī": 1233,
      "æĬ¤": 1234,
      "è½¬åĮĸ": 1235,
      "å®Ī": 1236,
      "çļĦåħ³ç³»": 1237,
      "ï¼Į\\(": 1238,
      "éģ¿": 1239,
      "ing": 1240,
      "éĢł": 1241,
      "åĩł": 1242,
      "ĠĠĠĠ": 1243,
      "åįķä½į": 1244,
      "æİ§": 1245,
      "åĽ´": 1246,
      "ä¾ĭåŃĲ": 1247,
      "ri": 1248,
      "as": 1249,
      "çĻ½": 1250,
      "æĺİç¡®": 1251,
      "``": 1252,
      "Ġ|": 1253,
      "ç®¡": 1254,
      "ä¾Ŀ": 1255,
      "ä¸¾": 1256,
      "ä¸ĸ": 1257,
      "æĬĢå·§": 1258,
      "è®Ńç»ĥ": 1259,
      "éģĹ": 1260,
      "å·¥ä¸ļ": 1261,
      "æ°Ķä½ĵ": 1262,
      "éª¤": 1263,
      "æĴ": 1264,
      "ç©¶": 1265,
      "mes": 1266,
      "æĹ¨åľ¨": 1267,
      "Â²": 1268,
      "æ³¢": 1269,
      "åĬłéĢŁåº¦": 1270,
      "æŃ¥éª¤": 1271,
      "æ¿": 1272,
      "åı£": 1273,
      "æ¿Ģ": 1274,
      "èĥĮ": 1275,
      "ÃĹ": 1276,
      "Ġy": 1277,
      "åħ¶ä»ĸ": 1278,
      "ï¼ģ": 1279,
      "åİŁåŃĲ": 1280,
      "çłĶ": 1281,
      "å¡": 1282,
      "åŃĺåľ¨": 1283,
      "èĮ": 1284,
      "ĠB": 1285,
      "æµĵ": 1286,
      "åķĨ": 1287,
      "éģ¿åħį": 1288,
      "åĪĨå¸ĥ": 1289,
      "al": 1290,
      "æ³Ľ": 1291,
      "åĲįè¯į": 1292,
      "åĲĪçĲĨ": 1293,
      "æ·±åħ¥": 1294,
      "times": 1295,
      "æĵį": 1296,
      "å·²çŁ¥": 1297,
      "åĨĻä½ľ": 1298,
      "æļ": 1299,
      "åĽŀ": 1300,
      "æŁĵèī²ä½ĵ": 1301,
      "åĪĴ": 1302,
      "æıĲåįĩ": 1303,
      "åĸ": 1304,
      "æĸĻ": 1305,
      "æľīæķĪ": 1306,
      "éĺ¶": 1307,
      "æľįåĬ¡": 1308,
      "æķ°åĪĹ": 1309,
      "è§£çŃĶ": 1310,
      "çİ°ä»£": 1311,
      "è¿ĩç¨ĭä¸Ń": 1312,
      "Ġn": 1313,
      "çľĭ": 1314,
      "ä¸»è¯Ń": 1315,
      "ä½İ": 1316,
      "ä¹ĭä¸Ģ": 1317,
      "å¿½": 1318,
      "åĨľ": 1319,
      "ä¸įåĲĮçļĦ": 1320,
      "åİŁåĪĻ": 1321,
      "Ġ---": 1322,
      "æĭŁ": 1323,
      "æĵįä½ľ": 1324,
      "çļĦæĺ¯": 1325,
      "åħļ": 1326,
      "äºĶ": 1327,
      "è·Ŀ": 1328,
      "ä¿ĿæĮģ": 1329,
      "å¿ħ": 1330,
      "ç¢±": 1331,
      "éŁ³": 1332,
      "éģĹä¼ł": 1333,
      "è¾¹": 1334,
      "Na": 1335,
      "æĿĲ": 1336,
      "çŁŃ": 1337,
      "__": 1338,
      "æľĿ": 1339,
      "ä½ľä¸º": 1340,
      "çª": 1341,
      "æķ°éĩı": 1342,
      "å°±æĺ¯": 1343,
      "çļĦæł¸å¿ĥ": 1344,
      "è¡¨çİ°": 1345,
      "æµĵåº¦": 1346,
      "å¾Ħ": 1347,
      "å¢ŀå¼º": 1348,
      "ro": 1349,
      "çĽ®æłĩ": 1350,
      "æ£": 1351,
      "èĦ": 1352,
      "åĽłæŃ¤": 1353,
      "ãĢĬ": 1354,
      "éĺ³": 1355,
      "è°ĥæķ´": 1356,
      "å¹¿æ³Ľ": 1357,
      "ãĢĭ": 1358,
      "ä¿®": 1359,
      "å¤§å°ı": 1360,
      "èģĶç³»": 1361,
      "æľ¬æ¨¡åĿĹ": 1362,
      "çĪ": 1363,
      "çĶµåľº": 1364,
      "èį·": 1365,
      "æŀĦå»º": 1366,
      "è½¬æį¢": 1367,
      "Ġh": 1368,
      "æ°´å¹³": 1369,
      "å¢ŀéķ¿": 1370,
      "ç»ľ": 1371,
      "Ġè®¡ç®Ĺ": 1372,
      "ç»ĦåĲĪ": 1373,
      "åĨ³å®ļ": 1374,
      "åĬ¨ä½ľ": 1375,
      "ol": 1376,
      "è§£éĩĬ": 1377,
      "è¿ĩåİ»": 1378,
      "çĶµæµģ": 1379,
      "çĶµèį·": 1380,
      "çŃĶæ¡Ī": 1381,
      "çłĶç©¶": 1382,
      "ä»¥ä¸ĭ": 1383,
      "è·µ": 1384,
      "èĳ": 1385,
      "æĹı": 1386,
      "åĮºåŁŁ": 1387,
      "è´¹": 1388,
      "åĮĹ": 1389,
      "è§Ĥå¯Ł": 1390,
      "10": 1391,
      "çĶ»": 1392,
      "ç®¡çĲĨ": 1393,
      "Cl": 1394,
      "ç»Ī": 1395,
      "åĤ": 1396,
      "æĳ": 1397,
      "æ¶īåıĬ": 1398,
      "çĲĨè®º": 1399,
      "ä»£è¡¨": 1400,
      "éĿ©åĳ½": 1401,
      "è£Ĥ": 1402,
      "¥¿": 1403,
      "è¥¿": 1404,
      "Ġ6": 1405,
      "å®ŀè·µ": 1406,
      "å¸Ĥåľº": 1407,
      "ç§ĳåŃ¦": 1408,
      "æİ¨åĬ¨": 1409,
      "åıª": 1410,
      "å·±": 1411,
      "æ´ĭ": 1412,
      "æł¸å¿ĥåħ¬å¼ı": 1413,
      "è¿ĺåİŁ": 1414,
      "ot": 1415,
      "çĽĲ": 1416,
      "çªģ": 1417,
      "çļĦçĲĨè§£": 1418,
      "æ··æ·": 1419,
      "æ¼": 1420,
      "èĪ": 1421,
      "åĽ¾åĥı": 1422,
      "ç½ĳç»ľ": 1423,
      "æ··æ·Ĩ": 1424,
      "åıĺéĩı": 1425,
      "çļĦä¸Ģ": 1426,
      "çĽ¸äºĴ": 1427,
      "é¢ĨåŁŁ": 1428,
      "åĳĺ": 1429,
      "éĽĨåĲĪ": 1430,
      "èĨ": 1431,
      "çļĦåºĶçĶ¨": 1432,
      "çīĩ": 1433,
      "æķĪçİĩ": 1434,
      "æĲ": 1435,
      "ĠP": 1436,
      "é©": 1437,
      "ä¸īè§Ĵ": 1438,
      "ç¥ŀç»ı": 1439,
      "å¢ŀåĬł": 1440,
      "è¡Įä¸º": 1441,
      "æİ¨çĲĨ": 1442,
      "os": 1443,
      "èĩªçĶ±": 1444,
      "å®ī": 1445,
      "ç©ºéĹ´": 1446,
      "å¹²": 1447,
      "éľĢæ±Ĥ": 1448,
      "èĭ¥": 1449,
      "æ»¡": 1450,
      "åĵª": 1451,
      "åľĨ": 1452,
      "ĊĠĠĠ": 1453,
      "æĶ¹åıĺ": 1454,
      "åıĤä¸İ": 1455,
      "çļĦæ¦Ĥå¿µ": 1456,
      "æľĽ": 1457,
      "æŀ¶": 1458,
      "æ³ķå¾ĭ": 1459,
      "åŁİ": 1460,
      "ä»İèĢĮ": 1461,
      "çĭ¬ç«ĭ": 1462,
      "åĽłä¸º": 1463,
      "ä»¥ä¸Ĭ": 1464,
      "ä¼łéĢĴ": 1465,
      "ï¼īãĢģ": 1466,
      "èĩªå·±": 1467,
      "çłģ": 1468,
      "èĻļ": 1469,
      "é¢Ħæµĭ": 1470,
      "ä¸ªäºº": 1471,
      "å¤ļä¸ª": 1472,
      "ä¸»é¢ĺ": 1473,
      "gh": 1474,
      "å¸¸è§ģéĶĻè¯¯": 1475,
      "æĺ¯æĮĩåľ¨": 1476,
      "çľŁ": 1477,
      "ç²Ĵ": 1478,
      "Ġå®ļä¹ī": 1479,
      "é¡º": 1480,
      "èĻĳ": 1481,
      "è¯Ħ": 1482,
      "èĮĥ": 1483,
      "lo": 1484,
      "âģ": 1485,
      "æ¤": 1486,
      "å¸Į": 1487,
      "åĪĨè£Ĥ": 1488,
      "çī©è´¨çļĦ": 1489,
      "èĤ²": 1490,
      "è°ĵè¯Ń": 1491,
      "çļĦåŃ¦ä¹ł": 1492,
      "æµ·": 1493,
      "æĪĳä»¬åı¯ä»¥": 1494,
      "å¾ªçİ¯": 1495,
      "å®ŀéĻħéĹ®é¢ĺ": 1496,
      "Ġå¸¸è§ģéĶĻè¯¯": 1497,
      "ä»»åĬ¡": 1498,
      "åı¥è¯Ŀ": 1499,
      "ç¿": 1500,
      "åħ»": 1501,
      "æ±Ĥè§£": 1502,
      "èº": 1503,
      "è®©": 1504,
      "æĶ¹éĿ©": 1505,
      "ĠT": 1506,
      "è¿ŀæİ¥": 1507,
      "æİ¢è®¨": 1508,
      "èĲ½": 1509,
      "çŃīå¼ı": 1510,
      "an": 1511,
      "Ġis": 1512,
      "èĭ±è¯Ń": 1513,
      "çº¦": 1514,
      "èº«": 1515,
      "Ġg": 1516,
      "æķħ": 1517,
      "ä½ĵçİ°": 1518,
      "æ²¡": 1519,
      "åĬĽçļĦ": 1520,
      "ç»ĥä¹ł": 1521,
      "è£ħ": 1522,
      "es": 1523,
      "å®ĪæģĴ": 1524,
      "è¯Ńä»İåı¥": 1525,
      "æĹĭ": 1526,
      "åħħ": 1527,
      "èĢĥèĻĳ": 1528,
      "è®°å¿Ĩ": 1529,
      "èĥĮæĻ¯": 1530,
      "^{": 1531,
      "æĬĺ": 1532,
      "Ġ\\)ï¼Į": 1533,
      "éĵģ": 1534,
      "é¦ĸåħĪ": 1535,
      "æĽ²": 1536,
      "å·¥åħ·": 1537,
      "sin": 1538,
      "ç»į": 1539,
      "åĽº": 1540,
      "æĹ¶æľŁ": 1541,
      "ä»ĭç»į": 1542,
      "å°Ķ": 1543,
      "çĶŁæĢģ": 1544,
      "æ¶Īè´¹": 1545,
      "æĶ¯æĮģ": 1546,
      "å¼±": 1547,
      "æ°¢": 1548,
      "ç®Ĺæ³ķ": 1549,
      "éĴł": 1550,
      "----": 1551,
      "ç§»åĬ¨": 1552,
      "èĨľ": 1553,
      "å¸®åĬ©æĪĳä»¬": 1554,
      "æŃĮ": 1555,
      "åĩ½æķ°çļĦ": 1556,
      "çŃĸçķ¥": 1557,
      "æĽ´å¥½åľ°çĲĨè§£": 1558,
      "çļĦæĸ¹æ³ķ": 1559,
      "è¯·": 1560,
      "æ±ĩ": 1561,
      "åĽ¢": 1562,
      "ä¸ĭçļĦ": 1563,
      "ç¾İ": 1564,
      "OH": 1565,
      "um": 1566,
      "åĨĽ": 1567,
      "äº¤éĢļ": 1568,
      "åĿĲ": 1569,
      "ç¿»": 1570,
      "ĠåĪĨæŀĲ": 1571,
      "çĹ": 1572,
      "åĶ": 1573,
      "ĠçļĦ": 1574,
      "æ¸ħæĻ": 1575,
      "ĠF": 1576,
      "ä½įç§»": 1577,
      "çĽ´çº¿": 1578,
      "éĢĲ": 1579,
      "å¾ĹåĪ°": 1580,
      "è·Ŀç¦»": 1581,
      "å¤ª": 1582,
      "çŃīäºİ": 1583,
      "åĨľä¸ļ": 1584,
      "éĤ£": 1585,
      "æĪ·": 1586,
      "åľ°çĲĨ": 1587,
      "ç³ĸ": 1588,
      "æĮģç»Ń": 1589,
      "æĪĺäºī": 1590,
      "åĮĸåŃ¦åıįåºĶ": 1591,
      "èİ": 1592,
      "èīº": 1593,
      "æ¸ħæĻ°": 1594,
      "æķ£": 1595,
      "ħ§": 1596,
      "è°ĥèĬĤ": 1597,
      "åĩıå°ĳ": 1598,
      "åĲĦç§į": 1599,
      "å¸¸è§ģèĢĥæ³ķ": 1600,
      "èħ": 1601,
      "åĨį": 1602,
      "çĶŁçī©": 1603,
      "éĵ¾": 1604,
      "åŁİå¸Ĥ": 1605,
      "æĸ¹éĿ¢": 1606,
      "æĢ»ç»ĵ": 1607,
      "ç®ĢåįķçļĦ": 1608,
      "Ġä¸Ģ": 1609,
      "æľīæľº": 1610,
      "è¿Ĳç®Ĺ": 1611,
      "ç©ºæ°Ķ": 1612,
      "è¯ĳ": 1613,
      "åĨ³çŃĸ": 1614,
      "æ²¡æľī": 1615,
      "æİ¨å¯¼": 1616,
      "ä¸ľ": 1617,
      "ä½ĵç³»": 1618,
      "äººç±»": 1619,
      "è§ĤçĤ¹": 1620,
      "æ»¡è¶³": 1621,
      "ç´¢": 1622,
      "Ġæł¹æį®": 1623,
      "å®ĺ": 1624,
      "å¯¼æķ°": 1625,
      "æ¯į": 1626,
      "çģµ": 1627,
      "é¥": 1628,
      "åĲĪæĪĲ": 1629,
      "åħ¬æ°ĳ": 1630,
      "éĢŁçİĩ": 1631,
      "çº¿æĢ§": 1632,
      "Ġv": 1633,
      "æĮī": 1634,
      "ç§¯åĪĨ": 1635,
      "19": 1636,
      "åĬ¨æĢģ": 1637,
      "ç£ģåľº": 1638,
      "å¸¸æķ°": 1639,
      "çļĦæĥħåĨµ": 1640,
      "ç³»ç»ŁçļĦ": 1641,
      "æ¨¡å¼ı": 1642,
      "æİ§åĪ¶": 1643,
      "æĴŃ": 1644,
      "æ¤į": 1645,
      "åĿĲæłĩ": 1646,
      "å±±": 1647,
      "è¯įæ±ĩ": 1648,
      "è¿Ĳè¾ĵ": 1649,
      "æĽ´åĬł": 1650,
      "åĴĮç¤¾ä¼ļ": 1651,
      "éĽ¨": 1652,
      "æĿ¥çļĦ": 1653,
      "çļĦåħ³éĶ®": 1654,
      "è¯Ńæ³ķ": 1655,
      "æ°ĳä¸»": 1656,
      "Ġto": 1657,
      "è½¬åĮĸä¸º": 1658,
      "å·¥ä½ľ": 1659,
      "ä¼°": 1660,
      "éĺ¶æ®µ": 1661,
      "æĳ©": 1662,
      "èĽ": 1663,
      "åĲĪéĢĤ": 1664,
      "è¾ĵåħ¥": 1665,
      "å¤ĩ": 1666,
      "æĬķ": 1667,
      "å»ºç«ĭ": 1668,
      "ĠI": 1669,
      "å°ģ": 1670,
      "åİŁåĽł": 1671,
      "èĢĥå¯Ł": 1672,
      "er": 1673,
      "å±Ģ": 1674,
      "æĸĩæľ¬": 1675,
      "è¯ĹæŃĮ": 1676,
      "æľĪ": 1677,
      "åħ³éĩįè¦ģ": 1678,
      "ä¼łæĴŃ": 1679,
      "è¶Ĭ": 1680,
      "èĩ³åħ³éĩįè¦ģ": 1681,
      "æ¯Ķè¾ĥ": 1682,
      "çŁ©": 1683,
      "åīĤ": 1684,
      "åĮĢ": 1685,
      "åĬ¨èĥ½": 1686,
      "äººåı£": 1687,
      "äºĭçī©": 1688,
      "å¤´": 1689,
      "ä½ĵç§¯": 1690,
      "}\\)": 1691,
      "ä½ı": 1692,
      "å¸®åĬ©åŃ¦çĶŁ": 1693,
      "ç¬¦åı·": 1694,
      "æ£Ģ": 1695,
      "èĽĭ": 1696,
      "æķ´ä½ĵ": 1697,
      "æ¯Ķä¾ĭ": 1698,
      "Ġç¤ºä¾ĭ": 1699,
      "å¼ºåº¦": 1700,
      "åħ±åĲĮ": 1701,
      "éĺµ": 1702,
      "æłĩåĩĨ": 1703,
      "å¤ĸåĬĽ": 1704,
      "ç»¿": 1705,
      "é¡ºåºı": 1706,
      "æ¡Īä¾ĭ": 1707,
      "ic": 1708,
      "ç¢³": 1709,
      "the": 1710,
      "é¸": 1711,
      "ç»¼": 1712,
      "åĪĨç±»": 1713,
      "å¯Į": 1714,
      "ä¿ĿæĬ¤": 1715,
      "åķĨåĵģ": 1716,
      "æľĢç»Ī": 1717,
      "åĲĪéĢĤçļĦ": 1718,
      "åı¦": 1719,
      "å¯¹åºĶ": 1720,
      "åı¯ä»¥éĢļè¿ĩ": 1721,
      "åĢĴ": 1722,
      "åĨ·": 1723,
      "æĦıè±¡": 1724,
      "çĹħ": 1725,
      "æĺ¯ä¸Ģä¸ª": 1726,
      "åįĹ": 1727,
      "æµģåĬ¨": 1728,
      "çĨ": 1729,
      "æĺ¯ä»Ģä¹Ī": 1730,
      "çĶµè§£": 1731,
      "éĺ²": 1732,
      "å¿«éĢŁ": 1733,
      "èĳĹ": 1734,
      "åı¥è¯Ŀå®ļä¹ī": 1735,
      "æ®Ĭ": 1736,
      "èģĮ": 1737,
      "ĠS": 1738,
      "æĢ§èĥ½": 1739,
      "è´¢": 1740,
      "æĹ¶çļĦ": 1741,
      "æīĵ": 1742,
      "çº¢": 1743,
      "çī¹æ®Ĭ": 1744,
      "è¡¨è¾¾å¼ı": 1745,
      "å¤©æ°Ķ": 1746,
      "ç¬¦åĲĪ": 1747,
      "å¸ĮæľĽ": 1748,
      "çĤ¹çļĦ": 1749,
      "å£°": 1750,
      "ĊĠ": 1751,
      "åĪĨåĪ«": 1752,
      "èĢĥæŁ¥": 1753,
      "ä¸Ģå®ļ": 1754,
      "æľºåĻ¨": 1755,
      "å·®å¼Ĥ": 1756,
      "ï¼ī**ï¼ļ": 1757,
      "åħ³äºİ": 1758,
      "å¼ĢæĶ¾": 1759,
      "ç¼º": 1760,
      "æĬĹ": 1761,
      "20": 1762,
      "ĠåºĶçĶ¨åľºæĻ¯": 1763,
      "ç¬¬ä¸Ģ": 1764,
      "æĹ¥å¸¸": 1765,
      "çĽĳ": 1766,
      "oo": 1767,
      "çħ§": 1768,
      "é¢ĳ": 1769,
      "è¯įè¯Ń": 1770,
      "è½¦": 1771,
      "ç«¯": 1772,
      "ç¾¤": 1773,
      "è¿ľ": 1774,
      "å¸¸è§ģçļĦ": 1775,
      "dot": 1776,
      "ĠçĲĨè§£": 1777,
      "å¸ģ": 1778,
      "å»ºè®®": 1779,
      "åĬłéĢŁ": 1780,
      "int": 1781,
      "æĢĿç»´": 1782,
      "ç¿»è¯ĳ": 1783,
      "ĠD": 1784,
      "ï¼ļ\\(": 1785,
      "å½¢è±¡": 1786,
      "é£Ł": 1787,
      "èİ·": 1788,
      "ĠH": 1789,
      "ç¨İ": 1790,
      "å¸¸çĶ¨": 1791,
      "ç»ĵè®º": 1792,
      "æŁĲäºĽ": 1793,
      "æĿĲæĸĻ": 1794,
      "å¼ł": 1795,
      "å¡«": 1796,
      "åħ´": 1797,
      "éĺ»": 1798,
      "åĲİçļĦ": 1799,
      "è´£": 1800,
      "è½´": 1801,
      "æķĪæŀľ": 1802,
      "æ±ī": 1803,
      "âĢĶâĢĶ": 1804,
      "çŁŃè¯Ń": 1805,
      "åħĭ": 1806,
      "åŁ¹": 1807,
      "æĶ¶åħ¥": 1808,
      "ç»¼åĲĪ": 1809,
      "æĤ": 1810,
      "ĠåŃ¦ä¹ł": 1811,
      "éĩĩ": 1812,
      "çĽ¸åĲĮ": 1813,
      "æ°ĳæĹı": 1814,
      "Ġ/": 1815,
      "å®³": 1816,
      "ä½ľèĢħ": 1817,
      "çĶµè·¯": 1818,
      "æķĻèĤ²": 1819,
      "çģµæ´»": 1820,
      "åľ¨å®ŀéĻħ": 1821,
      "çŁ©éĺµ": 1822,
      "åľ¨äºİ": 1823,
      "å½ķ": 1824,
      "åºıåĪĹ": 1825,
      "æĸ¹ç¨ĭå¼ı": 1826,
      "ãĢģâĢľ": 1827,
      "è´§": 1828,
      "é«ĺæķĪ": 1829,
      "ç»ıæµİåıĳå±ķ": 1830,
      "éªĮè¯ģ": 1831,
      "æĦŁåºĶ": 1832,
      "å¼Ģå§ĭ": 1833,
      "çľģ": 1834,
      "ç²¾ç¥ŀ": 1835,
      "çĽĬ": 1836,
      "å¿½çķ¥": 1837,
      "yth": 1838,
      "ä¸Ģåı¥è¯Ŀå®ļä¹ī": 1839,
      "çĶµåĬ¿": 1840,
      "å¤§æ°Ķ": 1841,
      "Ġ\\)ãĢĤ": 1842,
      "åħŃ": 1843,
      "âĢĿãĢģâĢľ": 1844,
      "å¤ļç§į": 1845,
      "ç¬¬äºĮ": 1846,
      "æķĻåŃ¦": 1847,
      "æ°¯": 1848,
      "æİª": 1849,
      "æī¿": 1850,
      "éĽ¶": 1851,
      "è°ĵè¯ŃåĬ¨è¯į": 1852,
      "ed": 1853,
      "çļĦåıĳå±ķ": 1854,
      "ĊĠĠĠĠĠĠ": 1855,
      "èĽĭçĻ½": 1856,
      "CO": 1857,
      "Î¸": 1858,
      "åĪĨä¸º": 1859,
      "æ¦Ĥå¿µå®ļä¹ī": 1860,
      "li": 1861,
      "Ġk": 1862,
      "éĿ¢ç§¯": 1863,
      "èĩªå·±çļĦ": 1864,
      "è¯Ħä¼°": 1865,
      "ython": 1866,
      "ä¸Ģèĩ´": 1867,
      "åĬ¨éĩı": 1868,
      "åĩºçİ°": 1869,
      ")ï¼Į": 1870,
      "åĪĩ": 1871,
      "æī©": 1872,
      "æııåĨĻ": 1873,
      "ç»Ļå®ļ": 1874,
      "ä¸įçŃīå¼ı": 1875,
      "çĶ±äºİ": 1876,
      "è®¤è¯Ĩ": 1877,
      "```": 1878,
      "å¯¹æ¯Ķ": 1879,
      "²Į": 1880,
      "è²Į": 1881,
      "çĶ¨æĪ·": 1882,
      "åĮĸåĲĪ": 1883,
      "Ġæł¸å¿ĥåħ¬å¼ı": 1884,
      "å¼¦": 1885,
      "æĭī": 1886,
      "ä¸ĸçķĮ": 1887,
      "æĢ§çļĦ": 1888,
      "åįı": 1889,
      "æĸĩè¨Ģ": 1890,
      "éĿŀå¸¸": 1891,
      "çĶŁæ´»ä¸ŃçļĦ": 1892,
      "åĩłä½ķ": 1893,
      "åĪĨè¯į": 1894,
      "Ġe": 1895,
      "çļĦä½ľçĶ¨": 1896,
      "å¾Ģ": 1897,
      "Ġ\"": 1898,
      "å¸Ŀ": 1899,
      "éĩįçĤ¹": 1900,
      "å¾Ī": 1901,
      "èĮĥåĽ´": 1902,
      "TP": 1903,
      "èĴ": 1904,
      "Ġi": 1905,
      "ç»ĺ": 1906,
      "éħ¶": 1907,
      "æķħäºĭ": 1908,
      "å®¾": 1909,
      "ä½ľåĵģ": 1910,
      "æī§": 1911,
      "æ±ł": 1912,
      "åħ¨éĿ¢": 1913,
      "å¤®": 1914,
      "éĹ¨": 1915,
      "éĺŁ": 1916,
      "æ²³": 1917,
      "éģµ": 1918,
      "åŃ¦çĶŁåı¯ä»¥": 1919,
      "éļľ": 1920,
      "å¤įæĿĤçļĦ": 1921,
      "rt": 1922,
      "}}": 1923,
      "ä¸įåıĺ": 1924,
      "è½¨": 1925,
      "å¹¶ä¸Ķ": 1926,
      "ç±³": 1927,
      "å±ķç¤º": 1928,
      "å¤ªéĺ³": 1929,
      ")^": 1930,
      "è¯¦": 1931,
      "æĬĬ": 1932,
      "æĦıæĢĿ": 1933,
      "æľ«": 1934,
      "ä¸Ńå¤®": 1935,
      "ç¡«": 1936,
      "è¢«åĬ¨": 1937,
      "ä¹ĭéĹ´çļĦåħ³ç³»": 1938,
      "åĪĨæķ°": 1939,
      "åĿļ": 1940,
      "æ·±åº¦": 1941,
      "ä»·æł¼": 1942,
      "{\\": 1943,
      "Ġä½¿çĶ¨": 1944,
      "æĺ¯ä¸ŃåĽ½": 1945,
      "çĶ¨æ³ķ": 1946,
      "æłĳ": 1947,
      "æĹ¶æĢģ": 1948,
      "åĪĽæĸ°": 1949,
      "æļĸ": 1950,
      "ç¯": 1951,
      "ĠäºĮ": 1952,
      "éļ¾": 1953,
      "æĿ¡ä»¶ä¸ĭ": 1954,
      "æİªæĸ½": 1955,
      "Ġ>": 1956,
      "ä¸ĩ": 1957,
      "è®ºè¯ģ": 1958,
      "åŃ¦çĶŁèĥ½å¤Ł": 1959,
      "âĤĥ": 1960,
      "ver": 1961,
      "é©¬": 1962,
      "DNA": 1963,
      "mat": 1964,
      "Ġ\\,": 1965,
      "ç»Łä¸Ģ": 1966,
      "æĢĿèĢĥ": 1967,
      "å®Įæķ´": 1968,
      "ec": 1969,
      "å½Ĵ": 1970,
      "éĩįåĬĽ": 1971,
      "è°Ĳ": 1972,
      "çĮ": 1973,
      "å®Įåħ¨": 1974,
      "æĲŃ": 1975,
      "ç¨ĭåºı": 1976,
      "æ¢¯": 1977,
      "çļĦæ¦Ĥçİĩ": 1978,
      "ç»ĩ": 1979,
      "Ġ10": 1980,
      "æĮ¯": 1981,
      "æĸĩåŃĹ": 1982,
      "æĢĿè·¯": 1983,
      "å¼Ģåıĳ": 1984,
      "æ°§æ°Ķ": 1985,
      "sq": 1986,
      "ĠåºĶçĶ¨": 1987,
      "Ġç»ĵåĲĪ": 1988,
      "Ġä¸º": 1989,
      "åħ³æ³¨": 1990,
      "é«ĺä¸Ń": 1991,
      "ä»£åħ¥": 1992,
      "èŀ": 1993,
      "æŀĦæĪĲ": 1994,
      "è§ĦåĪĴ": 1995,
      "åıĹåĪ°": 1996,
      "æ¿Ģç´ł": 1997,
      "ad": 1998,
      "cos": 1999,
      "ĠÃĹ": 2000,
      "åºķ": 2001,
      "ç±»åŀĭçļĦ": 2002,
      "æĺ¾èĳĹ": 2003,
      "åĤ¬": 2004,
      "æĽ²çº¿": 2005,
      "æĬĽ": 2006,
      "Ġä¾ĭå¦Ĥ": 2007,
      "éĶĭ": 2008,
      "ä¸ŃåĽ½çļĦ": 2009,
      "åıĤæķ°": 2010,
      "è®¤ä¸º": 2011,
      "åıĮ": 2012,
      "å¿Ĺ": 2013,
      "æĻº": 2014,
      "è¶ĭ": 2015,
      "å¯Ĩåº¦": 2016,
      "è´§å¸ģ": 2017,
      "cdot": 2018,
      "é¡»": 2019,
      "æľĢå¤§": 2020,
      "åĤ¬åĮĸ": 2021,
      "é»": 2022,
      "å®ª": 2023,
      "è¶ħ": 2024,
      "çģ¾": 2025,
      "ĠåĪ¤æĸŃ": 2026,
      "âĪ": 2027,
      "çļĦåħ·ä½ĵ": 2028,
      "ä½Ļ": 2029,
      "å®¹æĺĵ": 2030,
      "æĿĥåĪ©": 2031,
      "ä¸ĢæŃ¥": 2032,
      "å±ŀäºİ": 2033,
      "çīĽ": 2034,
      "æī¾åĪ°": 2035,
      "å¿ħé¡»": 2036,
      "ook": 2037,
      "ĠåĴĮ": 2038,
      "æ°¨": 2039,
      "æĿ¿": 2040,
      "æ²ī": 2041,
      "sqrt": 2042,
      "æīĭæ®µ": 2043,
      "Ġ[": 2044,
      "çĶµç¦»": 2045,
      "æĸĩä»¶": 2046,
      "é¡¿": 2047,
      "å¥ĩ": 2048,
      "æİĴåĪĹ": 2049,
      "Ġè¡¨ç¤º": 2050,
      "åĪĨç¦»": 2051,
      "æįŁ": 2052,
      "è¿Ľåħ¥": 2053,
      "çļĦéĩįè¦ģæĢ§": 2054,
      "ç§°ä¸º": 2055,
      "elta": 2056,
      "mol": 2057,
      "se": 2058,
      "éĩįè¦ģçļĦ": 2059,
      "åĳ¼": 2060,
      "ç»Ļåĩº": 2061,
      "æľºåĻ¨åŃ¦ä¹ł": 2062,
      "ä¾¿": 2063,
      "å¤įåĪ¶": 2064,
      "çī©ä½ĵçļĦ": 2065,
      "æľ¬æ¨¡åĿĹæĹ¨åľ¨": 2066,
      "åŁ¹åħ»": 2067,
      "æī§è¡Į": 2068,
      "çļĦèĥ½åĬĽ": 2069,
      "ä¸ĢäºĽ": 2070,
      "æ¡Ĩ": 2071,
      "Delta": 2072,
      "}$": 2073,
      "åĪ»": 2074,
      "ç»ķ": 2075,
      "è¿Ļæł·": 2076,
      "è¡ĮæĶ¿": 2077,
      "ä»ĸä»¬": 2078,
      "åºĵ": 2079,
      "éĿĻ": 2080,
      "ä¸Ĭä¸ĭ": 2081,
      "èĢĥè¯ķ": 2082,
      "æº¶è§£": 2083,
      "Ġå°Ĩ": 2084,
      "è®¸": 2085,
      "æ³ķåĪĻ": 2086,
      "æĿĥåĬĽ": 2087,
      "èĪ¬": 2088,
      "è¾ĵåĩº": 2089,
      "æ¼Ķ": 2090,
      "..": 2091,
      "æĿŁ": 2092,
      "æīį": 2093,
      "è¯ģæĺİ": 2094,
      "ä½ĵçİ°äºĨ": 2095,
      "Ġä¸ī": 2096,
      "åı¶": 2097,
      "ä¼¼": 2098,
      "çī¹æĢ§": 2099,
      "Â°": 2100,
      "ĠäºĨè§£": 2101,
      "åı£è¯Ģ": 2102,
      "ä»Ĭ": 2103,
      "åįİ": 2104,
      "æĮĩæķ°": 2105,
      "å¤ļæł·": 2106,
      "å¤įæķ°": 2107,
      "æķ´æķ°": 2108,
      "çļĦåŁºæľ¬æ¦Ĥå¿µ": 2109,
      "æĬĺå°Ħ": 2110,
      "é¥°": 2111,
      "ä¸ºåĲİ": 2112,
      "ç»Ħç»ĩ": 2113,
      "Ġè§£æŀĲ": 2114,
      "éĹŃ": 2115,
      "æº¶æ¶²ä¸Ń": 2116,
      "æĪĸèĢħ": 2117,
      "è®°ä½ı": 2118,
      "æ¤įçī©": 2119,
      "\\]": 2120,
      "çļĦæķ°æį®": 2121,
      "åŁºäºİ": 2122,
      "å½¢å®¹": 2123,
      "æĮĩçļĦæĺ¯": 2124,
      "éļĲ": 2125,
      "å¼ķåĬĽ": 2126,
      "çļĦä½įç½®": 2127,
      "åľ¨ä¸įåĲĮ": 2128,
      "è¡¥": 2129,
      "ç»ĨèĬĤ": 2130,
      "Ġåħ¶ä¸Ń": 2131,
      "åĮºåĪĨ": 2132,
      "Ġ<": 2133,
      "æŃ¢": 2134,
      "åĬłæ·±": 2135,
      "åģı": 2136,
      "çĿ£": 2137,
      "righ": 2138,
      "æ¡Ĩæŀ¶": 2139,
      "ma": 2140,
      "æĸľ": 2141,
      "çĶŁåĳ½": 2142,
      "ä¸Ĭè¿°": 2143,
      "è®ºçĤ¹": 2144,
      "éĻįæ°´": 2145,
      "åĮĸåĲĪçī©": 2146,
      "Â·": 2147,
      "éĢı": 2148,
      "æ¶µ": 2149,
      "ç¤¾ä¼ļä¸»ä¹ī": 2150,
      "ä¼łç»Ł": 2151,
      "çĦ¶åĲİ": 2152,
      "Ġ8": 2153,
      "å·¥ç¨ĭ": 2154,
      "çĶµåİĭ": 2155,
      "åħ¬å¹³": 2156,
      "æĺĵéĶĻ": 2157,
      "èīºæľ¯": 2158,
      "The": 2159,
      "çļĦä¸Ģç§į": 2160,
      "æ³¨æĦıåĬĽ": 2161,
      "åħ±äº§": 2162,
      "å®īåħ¨": 2163,
      "çĽĳçĿ£": 2164,
      "Ġå½ĵ": 2165,
      "éĿŀè°ĵè¯ŃåĬ¨è¯į": 2166,
      "åħīåĲĪ": 2167,
      "æĺł": 2168,
      "ç»´æĬ¤": 2169,
      "å²": 2170,
      "éĢļè¿ĩåŃ¦ä¹ł": 2171,
      "è¿ĻéĩĮ": 2172,
      "è½½": 2173,
      "ç»Łè®¡": 2174,
      "è¿ĺèĥ½": 2175,
      "çļĦä¸»è¦ģ": 2176,
      "äºĮæ°§åĮĸ": 2177,
      "å¿½è§Ĩ": 2178,
      "åĽ½éĻħ": 2179,
      "åĪ¶å®ļ": 2180,
      "è½»": 2181,
      "åĮºéĹ´": 2182,
      "çīĽé¡¿": 2183,
      "åħ±äº§åħļ": 2184,
      "ÏĢ": 2185,
      "Ġin": 2186,
      "éĢīæĭ©åĲĪéĢĤçļĦ": 2187,
      "nd": 2188,
      "éĢĨ": 2189,
      "çĶ¨æĿ¥": 2190,
      "çİĭ": 2191,
      "æĸĩåŃ¦": 2192,
      "æ´²": 2193,
      "å¤ļå°ĳ": 2194,
      "æ²»çĲĨ": 2195,
      "åİĭåĬĽ": 2196,
      "è´¢æĶ¿": 2197,
      "èŀį": 2198,
      "åĭ": 2199,
      "Ġre": 2200,
      "æ°ĶæĹĭ": 2201,
      "éģĩ": 2202,
      "è§Ĵåº¦": 2203,
      "**:": 2204,
      "ä¸İæ³¨æĦıäºĭé¡¹": 2205,
      "æĽ¿": 2206,
      "âĤģ": 2207,
      "ent": 2208,
      "ç¼ĸç¨ĭ": 2209,
      "ac": 2210,
      "åĮħåĲ«": 2211,
      "æŁĲä¸Ģ": 2212,
      "ĠéĢļè¿ĩä»¥ä¸Ĭ": 2213,
      "å¼¹": 2214,
      "åľ°æĸ¹": 2215,
      "ç¨ĭåº¦": 2216,
      "è¿ĽæŃ¥": 2217,
      "åĪĻæĺ¯": 2218,
      "çİ¯æµģ": 2219,
      "æŃ¤å¤ĸ": 2220,
      "ä¿®é¥°": 2221,
      "25": 2222,
      "å¦": 2223,
      "è¯¦ç»Ĩ": 2224,
      "Ġ*": 2225,
      "æł¡": 2226,
      "ä½ĵçļĦ": 2227,
      "å¾·": 2228,
      "çĨŁ": 2229,
      "Fe": 2230,
      "æŁĲä¸ª": 2231,
      "è§£åĨ³å®ŀéĻħéĹ®é¢ĺ": 2232,
      "åı¤ä»£": 2233,
      "åĽºå®ļ": 2234,
      "ĠR": 2235,
      "ä¸Ģæ¬¡": 2236,
      "ä»ĭè¯į": 2237,
      "æ¹": 2238,
      "Ġr": 2239,
      "åı³": 2240,
      "ä¹Ĳ": 2241,
      "æĪĲåĪĨ": 2242,
      "å¹³éĿ¢": 2243,
      "å¹³åĿĩ": 2244,
      "æĽ´å¥½åľ°çĲĨè§£åĴĮ": 2245,
      "æ¢°": 2246,
      "çģ¾å®³": 2247,
      "ge": 2248,
      "çļĦæĸ¹åĲĳ": 2249,
      "åºĶçĶ¨äºİ": 2250,
      "æīĢä»¥": 2251,
      "éĵĿ": 2252,
      "Ġ$$": 2253,
      "éĤ£ä¹Ī": 2254,
      "åĢĴè£ħ": 2255,
      "å½¢å®¹è¯į": 2256,
      "ĠæİĮæı¡": 2257,
      "ä¸°": 2258,
      "æĬ½": 2259,
      "èµı": 2260,
      "æľºæ¢°": 2261,
      "åĲĽ": 2262,
      "éĩįè¦ģæĢ§": 2263,
      "åıįåºĶçĶŁæĪĲ": 2264,
      "çºª": 2265,
      "ä»£æķ°": 2266,
      "é¡¹çĽ®": 2267,
      "çī©è´¨çļĦéĩı": 2268,
      "è¯ŃæĢģ": 2269,
      "åı¥å¼ı": 2270,
      "å¤§éĩı": 2271,
      "ä¸¤ç§į": 2272,
      "æĲŃéħį": 2273,
      "tu": 2274,
      "å¿ĥçĲĨ": 2275,
      "ä¸Ńå¿ĥ": 2276,
      "ä½¿å¾Ĺ": 2277,
      "èµ°": 2278,
      "\\)ï¼Į": 2279,
      "éĥ½æĺ¯": 2280,
      "åĳ¼åĲ¸": 2281,
      "åħīåĲĪä½ľçĶ¨": 2282,
      "SO": 2283,
      "ĠN": 2284,
      "åİĨ": 2285,
      "è¿Ľä¸ĢæŃ¥": 2286,
      "ç½Ĺ": 2287,
      "éķ¿åº¦": 2288,
      "å°±åĥı": 2289,
      "âģ»": 2290,
      "åı¯æĮģç»Ń": 2291,
      "äººçļĦ": 2292,
      "çĽ¸çŃī": 2293,
      "æł¸å¿ĥæ¦Ĥå¿µåĮħæĭ¬": 2294,
      "æŃ£ç¡®çļĦ": 2295,
      "ä¸°å¯Į": 2296,
      "å®Ĺ": 2297,
      "å¥ł": 2298,
      "ä¿Ŀéļľ": 2299,
      "ĠåĽĽ": 2300,
      "æĿ¥è¯´": 2301,
      "æıĲåıĸ": 2302,
      "å¼ķå¯¼": 2303,
      "row": 2304,
      "éģµå¾ª": 2305,
      "å¥łå®ļ": 2306,
      "Ġï¼Ī": 2307,
      "âĢĿï¼Ī": 2308,
      "åľ°å½¢": 2309,
      "é¢ĳçİĩ": 2310,
      "ĠE": 2311,
      "ä¸ĵ": 2312,
      "çŁĽ": 2313,
      "åıĳçĶŁçļĦ": 2314,
      "hat": 2315,
      "æĺŁ": 2316,
      "çĽ¾": 2317,
      "è¾¾åĪ°": 2318,
      "åħ¨çĲĥ": 2319,
      "èµ·æĿ¥": 2320,
      "è®¨è®º": 2321,
      "ç²ĴåŃĲ": 2322,
      "ATP": 2323,
      "ãĢĤ**": 2324,
      "å·²ç»ı": 2325,
      "åľ°è²Į": 2326,
      "ä½ľæĸĩ": 2327,
      "åĬłå¼º": 2328,
      "æİ¨æĸŃ": 2329,
      "\\)ãĢĤ": 2330,
      "ä»ĭè´¨": 2331,
      "åĲ«ä¹ī": 2332,
      "åĵªäºĽ": 2333,
      "mp": 2334,
      "Î±": 2335,
      "åıĪ": 2336,
      "å¤ľ": 2337,
      "äº§åĵģ": 2338,
      "æłĩå¿Ĺ": 2339,
      "çĶŁæ´»ä¸Ń": 2340,
      "åĸĦ": 2341,
      "èĴ¸": 2342,
      "çŁĽçĽ¾": 2343,
      "ch": 2344,
      "çļĦæĢ§è´¨": 2345,
      "è¯Ńæ°Ķ": 2346,
      "çĶµç£ģ": 2347,
      "ä¹īè¯į": 2348,
      "ç®ĢåĮĸ": 2349,
      "äº¤æµģ": 2350,
      "ç¯ĩ": 2351,
      "Ġon": 2352,
      "çļĦç»ĵæŀĦ": 2353,
      "ä¸ĭéĻį": 2354,
      "åĮºåĪ«": 2355,
      "ĠéĢļè¿ĩè¿ĻäºĽ": 2356,
      "ç»´æĮģ": 2357,
      "åĬĽåŃ¦": 2358,
      "éĻĨ": 2359,
      "åŃ¦çĶŁå¯¹": 2360,
      "ay": 2361,
      "Ġ&": 2362,
      "Ġo": 2363,
      "ä¸¥": 2364,
      "çĽĸ": 2365,
      "å·¦": 2366,
      "çŁ³": 2367,
      "æıĲåĩº": 2368,
      "èĩªåĬ¨": 2369,
      "æ¸Ĳ": 2370,
      "éĢīæĭ©é¢ĺ": 2371,
      "æıĲä¾ĽäºĨ": 2372,
      "éĿ¢çļĦ": 2373,
      "ĠL": 2374,
      "ä»¤": 2375,
      "åľŁ": 2376,
      "èµĸ": 2377,
      "æ¬§": 2378,
      "çĶŁåĬ¨": 2379,
      "å¯¹è±¡": 2380,
      "è¯Ńå¢ĥ": 2381,
      "æĶ¹éĿ©å¼ĢæĶ¾": 2382,
      "ä¼ģ": 2383,
      "åĨħéĥ¨": 2384,
      "é¢Ĩå¯¼": 2385,
      "èģĮèĥ½": 2386,
      "æįŁå¤±": 2387,
      "ome": 2388,
      "pi": 2389,
      "âĨĴ": 2390,
      "æķ°åŃĹ": 2391,
      "éĩįå¤į": 2392,
      "ç³»æķ°": 2393,
      "ä¸»åĬ¨": 2394,
      "æ·Ģ": 2395,
      "æ¸¸": 2396,
      "ç»ĦæĪĲéĥ¨åĪĨ": 2397,
      "ä¾Ŀèµĸ": 2398,
      "èĻļè¯į": 2399,
      "ĠåĪ©çĶ¨": 2400,
      "åĬ³": 2401,
      "ä¸ŃåĽ½åħ±äº§åħļ": 2402,
      "æ¨¡åŀĭçļĦ": 2403,
      "ä¸Ĭä¸ĭæĸĩ": 2404,
      "ä¼ģä¸ļ": 2405,
      "çī¹å®ļçļĦ": 2406,
      "ĊĠĠĠĠĠĠĠ": 2407,
      "éĹ´çļĦ": 2408,
      "è¡¨ç¤ºä¸º": 2409,
      "æīĭæ³ķ": 2410,
      "çĽ¸äºĴä½ľçĶ¨": 2411,
      "å¡«ç©º": 2412,
      "å®ļè¯Ńä»İåı¥": 2413,
      "è¯¯åĮº": 2414,
      "Ġ7": 2415,
      "äº«": 2416,
      "å¤ı": 2417,
      "ä¸ºäºĨ": 2418,
      "ä¸įèĥ½": 2419,
      "å®ŀæĸ½": 2420,
      "æĥ¯": 2421,
      "åıįæĺł": 2422,
      "åı¥åŃĲç»ĵæŀĦ": 2423,
      "å¡ĳ": 2424,
      "çĽ´çº¿è¿ĲåĬ¨": 2425,
      "theta": 2426,
      "èĽĭçĻ½è´¨": 2427,
      "Python": 2428,
      "æħ": 2429,
      "ä¹°": 2430,
      "è§£æĶ¾": 2431,
      "å®ŀä¾ĭ": 2432,
      "åĲĮä¸Ģ": 2433,
      "åĨħçļĦ": 2434,
      "çĶŁæĢģç³»ç»Ł": 2435,
      "RNA": 2436,
      "çļĦçī¹çĤ¹": 2437,
      "åıĳçİ°": 2438,
      "Ġbook": 2439,
      "åŃ£é£İ": 2440,
      "åĲĽä¸»": 2441,
      "il": 2442,
      "è¯¾": 2443,
      "æ®µèĲ½": 2444,
      "æĶ¶éĽĨ": 2445,
      "éĢĤçĶ¨äºİ": 2446,
      "æļĹ": 2447,
      "çĩ": 2448,
      "çļĦæł¸å¿ĥæ¦Ĥå¿µ": 2449,
      "çļĦè´¨éĩı": 2450,
      "è§ī": 2451,
      "ï¼īï¼ļ": 2452,
      "åĢį": 2453,
      "ä¸īä¸ª": 2454,
      "ä½łçļĦ": 2455,
      "ç¼ĵ": 2456,
      "ä¹Łæĺ¯": 2457,
      "çļĦæĥħæĦŁ": 2458,
      "âĢ¦": 2459,
      "ä¸įæĸŃ": 2460,
      "åĲĮåŃ¦": 2461,
      "å±ķçİ°": 2462,
      "éĢīé¡¹": 2463,
      "çªģåıĺ": 2464,
      "å®¾è¯Ń": 2465,
      "è¶ĭåĬ¿": 2466,
      "åı¯æĮģç»Ńåıĳå±ķ": 2467,
      "ä¸ĢèĪ¬": 2468,
      "åģ¥": 2469,
      "å±ķå¼Ģ": 2470,
      "æ°§åĮĸè¿ĺåİŁ": 2471,
      "éĩĬæĶ¾": 2472,
      "å¾®è°ĥ": 2473,
      "ä¸ĸçºª": 2474,
      "ĠThe": 2475,
      "12": 2476,
      "ÎĶ": 2477,
      "çĶ²": 2478,
      "è¿Ĳè¡Į": 2479,
      "è·¨": 2480,
      "çł´": 2481,
      "çĸ«": 2482,
      "åĤ¨": 2483,
      "çĶµè§£è´¨": 2484,
      "ç¨İæĶ¶": 2485,
      "ty": 2486,
      "æĺ¥": 2487,
      "åº·": 2488,
      "åıĺæį¢": 2489,
      "å®ĥä¸įä»ħ": 2490,
      "åĩ½æķ°åľ¨": 2491,
      "è®ºæĸĩ": 2492,
      "èĬ±": 2493,
      "å»ºè®¾": 2494,
      "é¦Ī": 2495,
      "éĥ½æľī": 2496,
      "åĲ¸æĶ¶": 2497,
      "Ġæ¦Ĥå¿µå®ļä¹ī": 2498,
      "çĶµå®¹": 2499,
      "åıįé¦Ī": 2500,
      "å°ıæĺİ": 2501,
      "è¿ŀç»Ń": 2502,
      "äº§çĶŁçļĦ": 2503,
      "âģº": 2504,
      "åĴĮè°Ĳ": 2505,
      "åĽŃ": 2506,
      "å¸Ī": 2507,
      "å¹Ĥ": 2508,
      "åĬĽéĩı": 2509,
      "åŀĤ": 2510,
      "è·¯å¾Ħ": 2511,
      "å¼Ĥå¸¸": 2512,
      "èĢĥæŁ¥éĩįçĤ¹": 2513,
      "æ·±åº¦åŃ¦ä¹ł": 2514,
      "æĢĿè·¯æıĲç¤º": 2515,
      "å®ªæ³ķ": 2516,
      "ion": 2517,
      "çļĦæĢ»": 2518,
      "ter": 2519,
      "èĬĤçĤ¹": 2520,
      "æĸ°çļĦ": 2521,
      "ap": 2522,
      "æ¸¡": 2523,
      "Ġ\\(\\": 2524,
      "ç´łæĿĲ": 2525,
      "åįĬå¾Ħ": 2526,
      "æĳ©å°Ķ": 2527,
      "å¥łå®ļäºĨ": 2528,
      "et": 2529,
      "ul": 2530,
      "è¿Ļæĺ¯": 2531,
      "çĶµæ±ł": 2532,
      "æ²¿": 2533,
      "æ°´è§£": 2534,
      "çģ«": 2535,
      "____": 2536,
      "æİ¨åĬ¨äºĨ": 2537,
      "æŀ¶æŀĦ": 2538,
      "ä»Ĭå¤©": 2539,
      "æĺĵéĶĻæıĲç¤º": 2540,
      "ĠM": 2541,
      "çĲĨæĥ³": 2542,
      "ä¸İåİŁçĲĨ": 2543,
      "ä¸»åı¥": 2544,
      "ä»£è¯į": 2545,
      "æľĢåĲİ": 2546,
      "æ·±è¿ľ": 2547,
      "_{\\": 2548,
      "è¡Ģ": 2549,
      "è¿ĩæ¸¡": 2550,
      "æ°Ķåİĭ": 2551,
      "åıĺåĮĸçļĦ": 2552,
      "ue": 2553,
      "æĪĲä¸º": 2554,
      "éĽĨæĿĥ": 2555,
      "è§Ĵèī²": 2556,
      "å®ŀéĻħåºĶçĶ¨": 2557,
      "çĬ¶è¯Ńä»İåı¥": 2558,
      "è´Łè´£": 2559,
      "åįĬçĲĥ": 2560,
      "ä¿ĥè¿ĽäºĨ": 2561,
      "æ¢¯åº¦": 2562,
      "st": 2563,
      "éĿł": 2564,
      "ç´§": 2565,
      "èĢĥçĶŁ": 2566,
      "èĲ¥": 2567,
      "åĬ¨çĶ»": 2568,
      "çº³": 2569,
      "ç»ĨèĥŀèĨľ": 2570,
      "åĩıæķ°": 2571,
      "æľªçŁ¥": 2572,
      "ĠäºĶ": 2573,
      "å¯¹ç§°": 2574,
      "åı¯èĥ½ä¼ļ": 2575,
      "èĻ½": 2576,
      "Ġâī": 2577,
      "åŃ£èĬĤ": 2578,
      "éļıæľº": 2579,
      "(-": 2580,
      "ä¸ĥ": 2581,
      "çļĦå®ļä¹ī": 2582,
      "çĲĨå¿µ": 2583,
      "ä¼Ĺ": 2584,
      "çŃīå·®": 2585,
      "tar": 2586,
      "(\\": 2587,
      "id": 2588,
      "åģ¶": 2589,
      "ce": 2590,
      "ph": 2591,
      "çļĦæĹ¶éĹ´": 2592,
      "åħ¬åħ±": 2593,
      "å¤§ä¼ļ": 2594,
      "å¿ħè¦ģ": 2595,
      "for": 2596,
      "åī¯": 2597,
      "ä¸Ńåįİ": 2598,
      "ä¸Ģé¡¹": 2599,
      "çŃīé¢ĨåŁŁ": 2600,
      "æľĢå°ı": 2601,
      "ä¿¡åı·": 2602,
      "åģļåĬŁ": 2603,
      "tion": 2604,
      "åĸ»": 2605,
      "çĪ±": 2606,
      "æ¶Īè´¹èĢħ": 2607,
      "æ²³æµģ": 2608,
      "Ġhe": 2609,
      "ç³»åĪĹ": 2610,
      "çī¹åĪ«": 2611,
      "åĳ³": 2612,
      "ä¹ĭéĹ´çļĦèģĶç³»": 2613,
      "ĠâĪ": 2614,
      "be": 2615,
      "å¯¹æķ°": 2616,
      "åĲĪä½ľ": 2617,
      "æ¨¡æĭŁ": 2618,
      "æĽ´å¥½åľ°æİĮæı¡": 2619,
      "ç§ĳä¸¾": 2620,
      "ä¸Ńå¤®éĽĨæĿĥ": 2621,
      "Ġè§£": 2622,
      "çļĦåİĨåı²": 2623,
      "åľĪ": 2624,
      "çĽ¸åºĶ": 2625,
      "çĽ¸åıį": 2626,
      "åįķè°ĥ": 2627,
      "å½¢æĪĲçļĦ": 2628,
      "æµĭè¯ķ": 2629,
      "æ¸ħæľĿ": 2630,
      "æĵ¦": 2631,
      "åĨĽäºĭ": 2632,
      "æľīæľºçī©": 2633,
      "¹æŀľ": 2634,
      "Ġä¾ĭ": 2635,
      "Ġåħ³éĶ®": 2636,
      "æĸ¯": 2637,
      "å°¾": 2638,
      "ä¼´": 2639,
      "ç§¦": 2640,
      "ä½įäºİ": 2641,
      "åŁºæľ¬çļĦ": 2642,
      "èĭ¹æŀľ": 2643,
      "éĢĤåºĶ": 2644,
      "éĢĲæ¸Ĳ": 2645,
      ".âĢĿ": 2646,
      "18": 2647,
      "åĳĪ": 2648,
      "å¾Ĺåĩº": 2649,
      "ç¥¨": 2650,
      "åĪĿéĢŁåº¦": 2651,
      "åĪĿå§ĭ": 2652,
      "æĳ©æĵ¦": 2653,
      "tarrow": 2654,
      "50": 2655,
      "^-": 2656,
      "ab": 2657,
      "ho": 2658,
      "ĠV": 2659,
      "å¥¹": 2660,
      "æŀģéĻĲ": 2661,
      "å®ĪæģĴå®ļå¾ĭ": 2662,
      "èİ·å¾Ĺ": 2663,
      "çĮ®": 2664,
      "ir": 2665,
      "æ®ĸ": 2666,
      "éĽĨä¸Ń": 2667,
      "æĿĥéĩį": 2668,
      "vec": 2669,
      "çĸĳ": 2670,
      "¹ģ": 2671,
      "ç¹ģ": 2672,
      "æŀĹ": 2673,
      "æĪĲæľ¬": 2674,
      "æĪĲç«ĭ": 2675,
      "æµģç¨ĭ": 2676,
      "åįķè¯į": 2677,
      "åı¥åŃĲçļĦ": 2678,
      "åħ·ä½ĵç¤ºä¾ĭ": 2679,
      "åĳ½é¢ĺ": 2680,
      "æ²īæ·Ģ": 2681,
      "çĽĳçĿ£åŃ¦ä¹ł": 2682,
      "éĢīä¸¾": 2683,
      "åħ·ä½ĵçļĦ": 2684,
      "å¸ĥå±Ģ": 2685,
      "end": 2686,
      "è½¬æį¢ä¸º": 2687,
      "çŃīå·®æķ°åĪĹ": 2688,
      "17": 2689,
      "é¢ľ": 2690,
      "æĸĩä¸Ń": 2691,
      "æ±½": 2692,
      "èµ¤": 2693,
      "ä¼łè¾¾": 2694,
      "åı¥åŃĲä¸Ń": 2695,
      "éĴĪ": 2696,
      "åŀĤçĽ´": 2697,
      "Ġ9": 2698,
      "çļĦæĶ¿æ²»": 2699,
      "å®ŀéĻħä¸Ĭ": 2700,
      "ä»·åĢ¼è§Ĥ": 2701,
      "æ°¢æ°Ķ": 2702,
      "å¯»": 2703,
      "çĶŁçī©ä½ĵ": 2704,
      "ä¸ŃçļĦåºĶçĶ¨": 2705,
      "éħįåŃĲ": 2706,
      "æĻºèĥ½": 2707,
      ")/": 2708,
      "la": 2709,
      "éĢļé¡¹": 2710,
      "è´Ń": 2711,
      "çĶµéĺ»": 2712,
      "çº¿ç²Ĵ": 2713,
      "è°ĥæİ§": 2714,
      "è¡¨è¾¾æĸ¹å¼ı": 2715,
      "Ġå¸¸è§ģéĶĻè¯¯ä¸İæ³¨æĦıäºĭé¡¹": 2716,
      "åģ¥åº·": 2717,
      "é¢ľèī²": 2718,
      "ld": 2719,
      "ly": 2720,
      "ä¸įæĺ¯": 2721,
      "ç§įç¾¤": 2722,
      "è®¡ç®Ĺæľº": 2723,
      "åıįåºĶçļĦ": 2724,
      "ä¾µ": 2725,
      "å¤įåħ´": 2726,
      "éī": 2727,
      "èĩªè½¬": 2728,
      "éķľ": 2729,
      "éļıçĿĢ": 2730,
      "ä¾Ŀæį®": 2731,
      "ä¿ĿæĮģä¸įåıĺ": 2732,
      "åĿļå®ŀ": 2733,
      "æ³¨æĦıåĬĽæľºåĪ¶": 2734,
      "éī´": 2735,
      "to": 2736,
      "åı°": 2737,
      "æĹ¢": 2738,
      "èĢģ": 2739,
      "æŃ¦": 2740,
      "å±ħ": 2741,
      "åĲĮä¹īè¯į": 2742,
      "æľ¬é¢ĺ": 2743,
      "ä¸ŃçļĦä½ľçĶ¨": 2744,
      "æŃ£å¼¦": 2745,
      "èĻ½çĦ¶": 2746,
      "30": 2747,
      "åıĭ": 2748,
      "æĸ¹æ¡Ī": 2749,
      "åľ°éĿ¢": 2750,
      "å¸¸çĶ¨äºİ": 2751,
      "ç»Łæ²»": 2752,
      "è±¡å¾ģ": 2753,
      "è¶£": 2754,
      "éħįç½®": 2755,
      "é£İå¸¦": 2756,
      "ç¾İåĽ½": 2757,
      "é«ĺä¸ŃçĶŁ": 2758,
      ")ãĢĤ": 2759,
      "un": 2760,
      "åŃ¦åĳĺ": 2761,
      "åĨ²": 2762,
      "æĢ§çĬ¶": 2763,
      "ä¸įå½ĵ": 2764,
      "æ´ģ": 2765,
      "é«ĺåº¦": 2766,
      "æĥħèĬĤ": 2767,
      "çº¿ç´¢": 2768,
      "åĽ¾å½¢": 2769,
      "ç¼ĸçłģ": 2770,
      "åĶ¯": 2771,
      "å®ĺèĥ½": 2772,
      "ç»¿èī²": 2773,
      "DP": 2774,
      "}_": 2775,
      "åĪĨæ¯į": 2776,
      "ä¸įåı¯": 2777,
      "è½¯": 2778,
      "å¸®åĬ©ä½ł": 2779,
      "log": 2780,
      "æ¡Īä¾ĭåĪĨæŀĲ": 2781,
      "è½¨éģĵ": 2782,
      "è®¸å¤ļ": 2783,
      "æłĩå¿ĹçĿĢ": 2784,
      "å®ĺèĥ½åĽ¢": 2785,
      "'(": 2786,
      "Ġ##": 2787,
      "ä¸Ŀ": 2788,
      "çļĦè¯Ńè¨Ģ": 2789,
      "æķ°çļĦ": 2790,
      "æĿ¾": 2791,
      "å¹¶éĢļè¿ĩ": 2792,
      "ran": 2793,
      "çĦ¦": 2794,
      "æķ´ä¸ª": 2795,
      "ç§¯æŀģ": 2796,
      "æııè¿°äºĨ": 2797,
      "çī©çĲĨåŃ¦": 2798,
      "åı¤è¯Ĺ": 2799,
      "éĢĲæŃ¥": 2800,
      "ĠW": 2801,
      "çļĦèĥ½éĩı": 2802,
      "æĢ§æł¼": 2803,
      "ä½ĵåĪ¶": 2804,
      "åľ°ä½į": 2805,
      "æ¨¡æĢģ": 2806,
      "åŁºæľ¬æ¦Ĥå¿µ": 2807,
      "äº¤æį¢": 2808,
      "æł·æľ¬": 2809,
      "èĻļæĭŁ": 2810,
      "æħ¢": 2811,
      "¡èĲ": 2812,
      "Ġ`": 2813,
      "è§£é¢ĺ": 2814,
      "æ´Ľ": 2815,
      "åĪĹå¼ı": 2816,
      "çĽ´è§Ĥ": 2817,
      "èģļ": 2818,
      "æĥħåĨµä¸ĭ": 2819,
      "åĲ«æľī": 2820,
      "æľ¬æ¨¡åĿĹå°Ĩ": 2821,
      "å°ģå»º": 2822,
      "å¤ĸåĬĽä½ľçĶ¨": 2823,
      "éĩĩçĶ¨": 2824,
      "è¢«åĬ¨è¯ŃæĢģ": 2825,
      "æ¶µçĽĸ": 2826,
      "å½¹": 2827,
      "éĢŁçĽ´çº¿è¿ĲåĬ¨": 2828,
      "åĮºä½į": 2829,
      "è¯»èĢħ": 2830,
      "æĬķç¥¨": 2831,
      "äºĮæ°§åĮĸç¢³": 2832,
      "å¹³æĸ¹": 2833,
      "æ»ĳ": 2834,
      "æľªæĿ¥": 2835,
      "èĳ¡èĲ": 2836,
      "ç¥ŀç»ıç½ĳç»ľ": 2837,
      "åı¦ä¸Ģä¸ª": 2838,
      "ĠåŃ¦ä¹łå»ºè®®": 2839,
      "èĳ¡èĲĦ": 2840,
      "$\\": 2841,
      "100": 2842,
      "Ġ{": 2843,
      "æĹ©": 2844,
      "è¿Ľç¨ĭ": 2845,
      "åıĳçĶŁåľ¨": 2846,
      "é¢Ħè®Ńç»ĥ": 2847,
      "æĪĺå½¹": 2848,
      "ä»»ä½ķ": 2849,
      "åħįçĸ«": 2850,
      "ĠK": 2851,
      "å®¡": 2852,
      "ä¹Ļ": 2853,
      "åį«": 2854,
      "åı¯ä»¥çĶ¨": 2855,
      "æ´Ĺ": 2856,
      "éĩįè¦ģæ¦Ĥå¿µ": 2857,
      "å¥³": 2858,
      "Ġand": 2859,
      "éĻįä½İ": 2860,
      "æµ·æ´ĭ": 2861,
      "çĶŁéķ¿": 2862,
      "åįł": 2863,
      "åľ°çĤ¹": 2864,
      "ä¸»è°ĵ": 2865,
      "æĥħå¢ĥ": 2866,
      "çĥĪ": 2867,
      "æŀģåĢ¼": 2868,
      "Ġfor": 2869,
      "NaOH": 2870,
      "çº¿ç²Ĵä½ĵ": 2871,
      "ith": 2872,
      "Ġ```": 2873,
      "å®¢": 2874,
      "æľ¬è´¨": 2875,
      "ç´¯": 2876,
      "çķĻ": 2877,
      "æİĴåºı": 2878,
      "ear": 2879,
      "Ġåħ¬å¼ı": 2880,
      "åľ¨æ°´": 2881,
      "å°Ŀ": 2882,
      "åıĺå¼Ĥ": 2883,
      "è¡ĮåĪĹå¼ı": 2884,
      "çĲĨè§£åħ¶": 2885,
      "åıįå°Ħ": 2886,
      "ç«ŀ": 2887,
      "å°Ĩèĥ½å¤Ł": 2888,
      "ä¸įåĲĮç±»åŀĭçļĦ": 2889,
      "åĪ©çĽĬ": 2890,
      "å¥½çļĦ": 2891,
      "Ġå¸¸è§ģè¯¯åĮº": 2892,
      "è§£åĨ³éĹ®é¢ĺ": 2893,
      "æĭŁåĲĪ": 2894,
      "åıªæľī": 2895,
      "ä¸īè§Ĵå½¢": 2896,
      "æ£ĢæŁ¥": 2897,
      "å¡ĳéĢł": 2898,
      "åĩıæķ°åĪĨè£Ĥ": 2899,
      "èĳ¡èĲĦç³ĸ": 2900,
      "$ï¼Į": 2901,
      "ĠçŁ¥è¯ĨçĤ¹": 2902,
      "çļĦä¿¡æģ¯": 2903,
      "åıī": 2904,
      "è¾ŀ": 2905,
      "åĲĪåĬĽ": 2906,
      "åħ¬åĽŃ": 2907,
      "è®°å½ķ": 2908,
      "æģ°": 2909,
      "èī¯": 2910,
      "è¿ĻäºĽåĨħå®¹": 2911,
      "æĦŁåıĹ": 2912,
      "åĽ¾è¡¨": 2913,
      "ç½Ĺé©¬": 2914,
      "çĶµç£ģæĦŁåºĶ": 2915,
      "Ġåħ·ä½ĵç¤ºä¾ĭ": 2916,
      "è´¯": 2917,
      "è¡¨éĿ¢": 2918,
      "åħ¬è½¬": 2919,
      "çº¯": 2920,
      "çļĦæĸ¹å¼ı": 2921,
      "çļĦæķ°éĩı": 2922,
      "è¿¹": 2923,
      "ç»§": 2924,
      "èĢĹ": 2925,
      "åĲĳä¼łæĴŃ": 2926,
      "çĬ¶è¯Ń": 2927,
      "ç¼©": 2928,
      "ç»ĦæĪĲçļĦ": 2929,
      "60": 2930,
      "é¼": 2931,
      "Ġå°ı": 2932,
      "åı²": 2933,
      "å°Ĭ": 2934,
      "åı¥åŀĭ": 2935,
      "åĽ½å®¶çļĦ": 2936,
      "ä¹ĺæ³ķ": 2937,
      "å¹²æ¶ī": 2938,
      ")=": 2939,
      "åºŃ": 2940,
      "Ġ\\\\": 2941,
      "éĢļéĩı": 2942,
      "åºĶå¯¹": 2943,
      "ä¸ªä½ĵ": 2944,
      "æ³ķåĽ½": 2945,
      "çī©ä½ĵåľ¨": 2946,
      "ç¢°": 2947,
      "çļĦåŁºç¡ĢçŁ¥è¯Ĩ": 2948,
      "ç¡«éħ¸": 2949,
      "çĶµå®¹åĻ¨": 2950,
      "å°Ŀè¯ķ": 2951,
      "åĲ¯": 2952,
      "âĢĻ": 2953,
      "åĩ»": 2954,
      "å¤§çļĦ": 2955,
      "å¤§è¯Ńè¨Ģ": 2956,
      "åħ¬å¼ıä¸º": 2957,
      "çĽ¸å¯¹": 2958,
      "äºĭåĬ¡": 2959,
      "æĻ®": 2960,
      "ç©¿": 2961,
      "åĪĹè¡¨": 2962,
      "å¼ķçĶ¨": 2963,
      "ä¾Ŀæ³ķ": 2964,
      "æīĵä¸ĭ": 2965,
      "æľºæ¢°èĥ½": 2966,
      "çļĦçİ°è±¡": 2967,
      "å®ļè¯Ń": 2968,
      "çŃīæ¯Ķ": 2969,
      "éĿĴ": 2970,
      "è®¡åĪĴ": 2971,
      "ä¸Ĭåįĩ": 2972,
      "æĮĩæłĩ": 2973,
      "çĥŃéĩı": 2974,
      "åľ°åĮºçļĦ": 2975,
      "æĮīçħ§": 2976,
      "æ°¯æ°Ķ": 2977,
      "éī´èµı": 2978,
      "äºļ": 2979,
      "å®ı": 2980,
      "æĺ¯åľ¨": 2981,
      "å¹¶åľ¨": 2982,
      "äºĭå®ŀ": 2983,
      "å¤įåĲĪ": 2984,
      "}{\\": 2985,
      "åĮĸåŃ¦éĶ®": 2986,
      "ç£ģéĢļéĩı": 2987,
      "ä»»æĦı": 2988,
      "Ġwas": 2989,
      "rix": 2990,
      "ç¢±æĢ§": 2991,
      "pH": 2992,
      "¦çīĩ": 2993,
      "å¨": 2994,
      "æ¥": 2995,
      "åĲ¬": 2996,
      "æķ°åĢ¼": 2997,
      "ä¸ºéĽ¶": 2998,
      "åľ°åĽ¾": 2999,
      "é¡¹å¼ı": 3000,
      "åĨĻåĩº": 3001,
      "æĥ³è±¡": 3002,
      "åħĥç´łçļĦ": 3003,
      "éĢ»è¾ĳæİ¨çĲĨ": 3004,
      "åĨ³å®ļäºĨ": 3005,
      "æ£ĢéªĮ": 3006,
      "é¸¦çīĩ": 3007,
      "matrix": 3008,
      "æ¹¿": 3009,
      "Ġæ³¨æĦı": 3010,
      "Ġä»Ģä¹Īæĺ¯": 3011,
      "çİ¯èĬĤ": 3012,
      "éħ¸æĢ§": 3013,
      "èĭ±åĽ½": 3014,
      "å¹¿æ³ĽåºĶçĶ¨äºİ": 3015,
      "çĶµåľºå¼ºåº¦": 3016,
      "å¤ļæł·æĢ§": 3017,
      "rightarrow": 3018,
      "çĩĥ": 3019,
      "$ãĢĤ": 3020,
      "çļĦéĹ®é¢ĺ": 3021,
      "ãĢĤï¼ī": 3022,
      "ä»½": 3023,
      "åĲĥ": 3024,
      "å°¤": 3025,
      "å½¼": 3026,
      "è¯Ńæĸĩ": 3027,
      "æĮĩå¯¼": 3028,
      "æ¯Ķåĸ»": 3029,
      "ä¸¤èĢħ": 3030,
      "åħ±åŃĺ": 3031,
      "çİ°åľ¨æĹ¶": 3032,
      "NaCl": 3033,
      "å£°éŁ³": 3034,
      "åĤ¬åĮĸåīĤ": 3035,
      "åĴĮæ³¨æĦıäºĭé¡¹": 3036,
      "åŃ¦æł¡": 3037,
      "ï¼ī**": 3038,
      "ï¼īï¼Ľ": 3039,
      "æıĴ": 3040,
      "å¸¦çĶµ": 3041,
      "çĥŃå¸¦": 3042,
      "--------": 3043,
      "kg": 3044,
      "nt": 3045,
      "ä¸Ģèµ·": 3046,
      "ä¸İåºĶçĶ¨": 3047,
      "åĬłåĩı": 3048,
      "ä»£çłģ": 3049,
      "åŃ¦çĶŁçļĦ": 3050,
      "åħ±ä»·": 3051,
      "æĶ¯åĩº": 3052,
      "åĿĩè¡¡": 3053,
      "ä»¥ä¸ĭæĺ¯": 3054,
      "ä»£è¡¨å¤§ä¼ļ": 3055,
      "å¸Ĥåľºç»ıæµİ": 3056,
      "èĪª": 3057,
      "æĮ¯åĬ¨": 3058,
      "åĬ³åĬ¨": 3059,
      "çŃīæ¯Ķæķ°åĪĹ": 3060,
      "Ġå¦Ĥæŀľ": 3061,
      "çļĩ": 3062,
      "çļĦç»ĵæŀľ": 3063,
      "çļĦåĮºåĪ«": 3064,
      "å¿ĺ": 3065,
      "ç§©": 3066,
      "å¹¶æİĮæı¡": 3067,
      "é«ĺçº§": 3068,
      "æ·±åĪ»": 3069,
      "é£ŀ": 3070,
      "åĮĸåŃ¦æĢ§è´¨": 3071,
      "Ġ$\\": 3072,
      "çĻ¾": 3073,
      "æī¾åĩº": 3074,
      "æĴŀ": 3075,
      "æľīæķĪçļĦ": 3076,
      "é£Łçī©": 3077,
      "æķĻåŃ¦åĨħå®¹": 3078,
      "ä¸ĩæľī": 3079,
      "()": 3080,
      "rint": 3081,
      "åĴĮä¼ĺåĮĸ": 3082,
      "ä¼¦": 3083,
      "ç¡¬": 3084,
      "æĮĩåĩº": 3085,
      "è¿ĩç¨ĭä¸ŃçļĦ": 3086,
      "æııç»ĺ": 3087,
      "åıĬåħ¶åľ¨": 3088,
      "æ··åĲĪ": 3089,
      "è¯´æĺİæĸ¹æ³ķ": 3090,
      "åħħåĪĨ": 3091,
      "ç»ĺåĪ¶": 3092,
      "çĲĨæĥ³æ°Ķä½ĵ": 3093,
      "NH": 3094,
      "ä¸²": 3095,
      "çļĦæķ°åŃ¦": 3096,
      "æľ¨": 3097,
      "ç»ıåİĨ": 3098,
      "è®ºæį®": 3099,
      "è®®è®ºæĸĩ": 3100,
      "çĭ¬çī¹": 3101,
      "ä¿®è¾ŀ": 3102,
      "çļĦæĥħåĨµä¸ĭ": 3103,
      "å¦Ī": 3104,
      "åµ": 3105,
      "éĨ": 3106,
      "Ġæ³¨æĦıäºĭé¡¹": 3107,
      "è¿½": 3108,
      "éĢĶ": 3109,
      "æĺ¯éĢļè¿ĩ": 3110,
      "ä¸İæ°´": 3111,
      "æµ®": 3112,
      "åĬĽåĴĮ": 3113,
      "æĸĩæĺİ": 3114,
      "æī¹": 3115,
      "æĿ¥æºĲ": 3116,
      "åĬłæ³ķ": 3117,
      "ç¬Ķ": 3118,
      "äººæ°ĳä»£è¡¨å¤§ä¼ļ": 3119,
      "elf": 3120,
      "ç¥ŀç»ıåħĥ": 3121,
      "æľ¬æ¨¡åĿĹæĹ¨åľ¨ä¸º": 3122,
      "qu": 3123,
      "ĠæĹ¶": 3124,
      "äº¡": 3125,
      "åĪĨæŀĲåĴĮ": 3126,
      "Ġat": 3127,
      "è¦ģçĤ¹åĮħæĭ¬": 3128,
      "éĵľ": 3129,
      "æĹłæ³ķ": 3130,
      "çļĦéĩįè¦ģç»ĦæĪĲéĥ¨åĪĨ": 3131,
      "äººçī©å½¢è±¡": 3132,
      "ould": 3133,
      "^{-": 3134,
      "å¸¸çĶ¨çļĦ": 3135,
      "çĸĳéĹ®": 3136,
      "æ±½è½¦": 3137,
      "å¯»æī¾": 3138,
      "å®ıè§Ĥ": 3139,
      "PI": 3140,
      "sor": 3141,
      "Ġè¿Ļ": 3142,
      "åĮ»": 3143,
      "**ï¼ļâĢľ": 3144,
      "åĨ¬": 3145,
      "å¹ħ": 3146,
      "å¯¹è¯Ŀ": 3147,
      "åħ¶æł¸å¿ĥ": 3148,
      "çŁ¥éģĵ": 3149,
      "æ¶¦": 3150,
      "ç¬¬ä¸ī": 3151,
      "åĪĨè§£ä¸º": 3152,
      "Ġof": 3153,
      "ç¼ĵåŃĺ": 3154,
      "è½¯ä»¶": 3155,
      "ä¸ĩæľīå¼ķåĬĽ": 3156,
      "ĠæŁĲ": 3157,
      "åĬĽä½ľçĶ¨": 3158,
      "éĩįæĸ°": 3159,
      "ä¸ŃçļĦä¸Ģä¸ª": 3160,
      "å¦Ĥä½ķéĢļè¿ĩ": 3161,
      "ç§ĳæĬĢ": 3162,
      "æĸĩç«łçļĦ": 3163,
      "åľ°çĲĥèĩªè½¬": 3164,
      "low": 3165,
      "åĶĲ": 3166,
      "è½¨è¿¹": 3167,
      "éģĩåĪ°": 3168,
      "å¥łå®ļäºĨåŁºç¡Ģ": 3169,
      "å¤§è¯Ńè¨Ģæ¨¡åŀĭ": 3170,
      "om": 3171,
      "us": 3172,
      "Â³": 3173,
      "æĺ¯çĶ±": 3174,
      "è¾Ľ": 3175,
      "åıĬåħ¶åºĶçĶ¨": 3176,
      "åı¯èĥ½å¯¼èĩ´": 3177,
      "èĩªçĦ¶è¯Ńè¨Ģ": 3178,
      "åīįæıĲ": 3179,
      "Ġyou": 3180,
      "çĪ¶": 3181,
      "èİ·åıĸ": 3182,
      "åĴĮæĬĢæľ¯": 3183,
      "ä¸ĢæĿ¡": 3184,
      "èĥľ": 3185,
      "ä½ĵéªĮ": 3186,
      "æł¸å¿ĥå®ļä¹ī": 3187,
      "è½¬ç§»": 3188,
      "åı¥åŃĲä¸ŃçļĦ": 3189,
      "éĺħè¯»çĲĨè§£": 3190,
      "å¡«ç©ºé¢ĺ": 3191,
      "èµ¤éģĵ": 3192,
      "æľ¬é¢ĺä¸»è¦ģ": 3193,
      "ç¢°æĴŀ": 3194,
      "åĦ": 3195,
      "ç°": 3196,
      "çı": 3197,
      "åŃ¦ä¼ļ": 3198,
      "åľ°çĲĨè§£": 3199,
      "åģľ": 3200,
      "å¹³è¡Į": 3201,
      "åıįåºĶéĢŁçİĩ": 3202,
      "è®¾å¤ĩ": 3203,
      "åįķæķ°": 3204,
      "ä¼łæī¿": 3205,
      "çĽ®çļĦ": 3206,
      "éĻĲåĪ¶": 3207,
      "åĽ´ç»ķ": 3208,
      "çľĭåĪ°": 3209,
      "å¤ıåŃ£": 3210,
      "æģ°å½ĵ": 3211,
      "igh": 3212,
      "ĠG": 3213,
      "ĠQ": 3214,
      "ĭåıĭ": 3215,
      "ï¼ļ\\[": 3216,
      "ç»Ŀ": 3217,
      "æľĭåıĭ": 3218,
      "æĺ¼": 3219,
      "æĺ¯æııè¿°": 3220,
      "éĢļè¿ĩè¿ĻäºĽ": 3221,
      "æĮĳ": 3222,
      "è¯Ńåı¥": 3223,
      "çĶµåĬ¨": 3224,
      "åĢ¾": 3225,
      "èĩªçĦ¶çģ¾å®³": 3226,
      "ä¹ĺä»¥": 3227,
      "æ·±åħ¥çĲĨè§£": 3228,
      "èħº": 3229,
      "çĽ¸åºĶçļĦ": 3230,
      "èı": 3231,
      "Ġli": 3232,
      "ĠéĢīæĭ©é¢ĺ": 3233,
      "åı¸": 3234,
      "ç»ª": 3235,
      "æĬ¥": 3236,
      "åĬłåħ¥": 3237,
      "æ·»": 3238,
      "çķħ": 3239,
      "ä½łåı¯ä»¥": 3240,
      "å¼ķèµ·": 3241,
      "Ġcat": 3242,
      "ä¸īè§Ĵåĩ½æķ°": 3243,
      "math": 3244,
      "ä¸ºåĲİç»Ń": 3245,
      "èŀįåĲĪ": 3246,
      "ow": 3247,
      "ãĢĤï¼Ī": 3248,
      "äº¥": 3249,
      "äºĳ": 3250,
      "çº¬": 3251,
      "éĻĦ": 3252,
      "æĽ´å¤ļ": 3253,
      "äº§çī©": 3254,
      "éĢ»è¾ĳæĢĿç»´": 3255,
      "äº§çĶŁäºĨ": 3256,
      "ç¼ĸåĨĻ": 3257,
      "çĶµåľºçº¿": 3258,
      "åľĨåĳ¨": 3259,
      "æĹĭè½¬": 3260,
      "åĨ·éĶĭ": 3261,
      "è¶ħéĩį": 3262,
      "app": 3263,
      "è¾Ľäº¥": 3264,
      "}^{": 3265,
      "Ġåĩ½æķ°": 3266,
      "çļĦè¿ĲåĬ¨": 3267,
      "çļĦçĲĨè§£åĴĮ": 3268,
      "æĪĲåĬŁ": 3269,
      "å®ŀæķ°": 3270,
      "åĩºåıĳ": 3271,
      "æŃ£çĶµèį·": 3272,
      "ç½²": 3273,
      "è½¬å½ķ": 3274,
      "å®¶åºŃ": 3275,
      "åĽ¾çīĩ": 3276,
      "Ġbe": 3277,
      "éĢĤåĲĪ": 3278,
      "æ¸ħæ´Ĺ": 3279,
      "è¦ģæ±ĤåŃ¦çĶŁ": 3280,
      "æ´ĭæµģ": 3281,
      "éĢļé¡¹åħ¬å¼ı": 3282,
      "ç«ŀäºī": 3283,
      "å¸¦çĶµç²ĴåŃĲ": 3284,
      "åħ±ä»·éĶ®": 3285,
      "Ġç¡®å®ļ": 3286,
      "åıĺæ³ķ": 3287,
      "åĲĮæºĲ": 3288,
      "å¤§äºİ": 3289,
      "åĲĳå¿ĥ": 3290,
      "å®ļä¹īåŁŁ": 3291,
      "åĲİç»Ń": 3292,
      "æķ°æį®åºĵ": 3293,
      "åıĬåħ¶å¯¹": 3294,
      "åĩĨç¡®æĢ§": 3295,
      "éĻ¤æ³ķ": 3296,
      "èĢĥå¯ŁåŃ¦çĶŁå¯¹": 3297,
      "æĬĬæı¡": 3298,
      "...": 3299,
      "åµĮ": 3300,
      "15": 3301,
      "16": 3302,
      "AB": 3303,
      "é²": 3304,
      "åĬ±": 3305,
      "Ġthat": 3306,
      "res": 3307,
      "åľ°çĲĨä½įç½®": 3308,
      "åĿĲæłĩç³»": 3309,
      "åĿļå®ŀçļĦåŁºç¡Ģ": 3310,
      ")(": 3311,
      "ub": 3312,
      "çļĦéĢŁåº¦": 3313,
      "ä¸Ģæł·": 3314,
      "ä¸Ģç³»åĪĹ": 3315,
      "æĢ§éģĹä¼ł": 3316,
      "åıĺéĿ©": 3317,
      "ä¸ŃçļĦéĩįè¦ģ": 3318,
      "ä½įåŁºåĽł": 3319,
      "éĥ¨ç½²": 3320,
      "å¼Ģå¤´": 3321,
      "åŃĺåĤ¨": 3322,
      "åĩłä¸ª": 3323,
      "çªģåĩº": 3324,
      "åıįæĺłäºĨ": 3325,
      "åĪº": 3326,
      "çŃīä½įåŁºåĽł": 3327,
      "äººä»¬": 3328,
      "åĨħå®¹çļĦåŃ¦ä¹ł": 3329,
      "èĩ³å°ĳ": 3330,
      "ensor": 3331,
      "åĳ¨æľŁæĢ§": 3332,
      "è¿ĳä»£": 3333,
      "åĮĢåıĺ": 3334,
      "äººåı£å¢ŀéķ¿": 3335,
      "æ±īè¯Ń": 3336,
      "æī©å±ķ": 3337,
      "é»Ħ": 3338,
      "æįŁå¤±åĩ½æķ°": 3339,
      "CH": 3340,
      "çĶ·": 3341,
      "å°º": 3342,
      "ç§Ĵ": 3343,
      "æ³¨éĩį": 3344,
      "ä¾§": 3345,
      "ç¤¾ä¼ļçļĦ": 3346,
      "å½ĵåīį": 3347,
      "å¤ĸçķĮ": 3348,
      "æŃ¤é¢ĺ": 3349,
      "çŃĶé¢ĺ": 3350,
      "åħīçº¿": 3351,
      "åĲ¦å®ļ": 3352,
      "éĢ»è¾ĳåħ³ç³»": 3353,
      "çľŁå®ŀ": 3354,
      "å±ķç¤ºäºĨ": 3355,
      "æ°§åĮĸè¿ĺåİŁåıįåºĶ": 3356,
      "æ·±è¿ľå½±åĵį": 3357,
      "PU": 3358,
      "di": 3359,
      "ft": 3360,
      "ke": 3361,
      "åł": 3362,
      "é¾": 3363,
      "Ġå¿½çķ¥": 3364,
      "åħ¹": 3365,
      "æ³¡": 3366,
      "çĤ¼": 3367,
      "åĢŁ": 3368,
      "çĽ¸ä¼¼": 3369,
      "å°Ĩåħ¶": 3370,
      "æĥħæĢģ": 3371,
      "è®¾æĸ½": 3372,
      "ç»ĵæŀĦåĴĮ": 3373,
      "æİ¨æµĭ": 3374,
      "éĿŀéĩĳå±ŀ": 3375,
      "èĥ½åĬĽåĴĮ": 3376,
      "æĸ¹ç¨ĭç»Ħ": 3377,
      "ä¾ĽåºĶ": 3378,
      "æ¶ĪèĢĹ": 3379,
      "å®ĥä»¬çļĦ": 3380,
      "000": 3381,
      "èĦĤ": 3382,
      "èĦļ": 3383,
      "very": 3384,
      "æ°Ķåİĭå¸¦": 3385,
      "è´Ńä¹°": 3386,
      "mathb": 3387,
      "cm": 3388,
      "Ġåģĩè®¾": 3389,
      "çļĦå½¢å¼ı": 3390,
      "å®¤": 3391,
      "æķ°çĽ®": 3392,
      "è´¥": 3393,
      "æĮ¥": 3394,
      "æįķ": 3395,
      "éĻĪ": 3396,
      "ç»ıè¿ĩ": 3397,
      "åıįåºĶçī©": 3398,
      "æķ°æį®ç±»åŀĭ": 3399,
      "è¿ĺæĺ¯": 3400,
      "å¼ķåħ¥": 3401,
      "Ġwe": 3402,
      "å¤±éĩį": 3403,
      "éĻ¤ä»¥": 3404,
      "æ³¢åĬ¨": 3405,
      "åĸľ": 3406,
      "åĮĹåįĬçĲĥ": 3407,
      "çģµæ´»è¿ĲçĶ¨": 3408,
      "çĶŁæ´»ä¸ŃçļĦä¾ĭåŃĲ": 3409,
      "çĶŁåĳ½æ´»åĬ¨": 3410,
      "è¿ĩæ¸¡è¯į": 3411,
      "æĳ©æĵ¦åĬĽ": 3412,
      "rans": 3413,
      "æıĴåħ¥": 3414,
      "è¾Ľäº¥éĿ©åĳ½": 3415,
      "æĥħæĢģåĬ¨è¯į": 3416,
      "mRNA": 3417,
      "ĠæĺĵéĶĻæıĲç¤º": 3418,
      "çļĦå½¢æĪĲ": 3419,
      "è§£æ³ķ": 3420,
      "å®ļç§¯åĪĨ": 3421,
      "è¡¨æĺİ": 3422,
      "çĽ¸åĬł": 3423,
      "ç«ĸ": 3424,
      "çº¿åľĪ": 3425,
      "éľĢæ³¨æĦı": 3426,
      "éļĶ": 3427,
      "éħįå¹³": 3428,
      "å¤ĸéĥ¨": 3429,
      "äºĮæ¬¡": 3430,
      "åħīåıįåºĶ": 3431,
      "åİĭå¼º": 3432,
      "é¢Ħå¤ĦçĲĨ": 3433,
      "çĸĹ": 3434,
      "åĲįè¯įæĪĸ": 3435,
      "æ·±åħ¥æİ¢è®¨": 3436,
      "æ´ĭåĬ¡": 3437,
      "å¼¹ç°": 3438,
      "ç§ĳä¸¾åĪ¶åº¦": 3439,
      "å¿ĺè®°": 3440,
      "å¼¹ç°§": 3441,
      "gin": 3442,
      "åľ¨æĹ¥å¸¸": 3443,
      "æ°®": 3444,
      "çİ©": 3445,
      "åħ¶åľ¨": 3446,
      "åı¥ä¸Ń": 3447,
      "å¹³æĬĽ": 3448,
      "æ°´å¾ªçİ¯": 3449,
      "éľĩ": 3450,
      "è¿ĲåĬ¨çļĦ": 3451,
      "ç®Ģæ´ģ": 3452,
      "æŃ£ç¡®çŃĶæ¡Ī": 3453,
      "çģ¯": 3454,
      "éĴŁ": 3455,
      "åĪĽä½ľ": 3456,
      "çİ°ä»£åĮĸ": 3457,
      "æ¼Ĥ": 3458,
      "æ´Ľä¼¦": 3459,
      "é¸¦çīĩæĪĺäºī": 3460,
      "æĺ¼å¤ľ": 3461,
      "æ´Ľä¼¦åħ¹": 3462,
      "LP": 3463,
      "ave": 3464,
      "å°½": 3465,
      "æĸĩèīº": 3466,
      "æľ¬èĬĤ": 3467,
      "æīĢéľĢ": 3468,
      "åŃĹç¬¦": 3469,
      "åıĸå¾Ĺ": 3470,
      "æľīåĬ©äºİæĪĳä»¬": 3471,
      "è¯Ħä»·": 3472,
      "éĿŀå¸¸éĩįè¦ģ": 3473,
      "æļĸéĶĭ": 3474,
      "¢éĩı": 3475,
      "è®¿": 3476,
      "åĪĨå°ģ": 3477,
      "éĩıåĮĸ": 3478,
      "çŁ¢éĩı": 3479,
      "åģļçļĦ": 3480,
      "æĶ¹è¿Ľ": 3481,
      "çİ¯å¢ĥæııåĨĻ": 3482,
      "åİĨåı²ä¸Ĭ": 3483,
      "åĲ¸å¼ķ": 3484,
      "æĬĹæĹ¥": 3485,
      "çĶµåĬ¿èĥ½": 3486,
      "æĸĩè¨Ģæĸĩ": 3487,
      "ä½Ļå¼¦": 3488,
      "âī": 3489,
      "ĠU": 3490,
      "Ķç»Ĩ": 3491,
      "ä»Ķç»Ĩ": 3492,
      "æŃ»": 3493,
      "åįĥ": 3494,
      "ç¡®ç«ĭ": 3495,
      "è§ĦèĮĥ": 3496,
      "å¥ı": 3497,
      "æ±ĤåĴĮ": 3498,
      "mer": 3499,
      "æŃ£ç¡®ä½¿çĶ¨": 3500,
      "çļĦåŁºæľ¬åİŁçĲĨ": 3501,
      "æµĭéĩı": 3502,
      "è¿ŀè´¯": 3503,
      "è¯ĨåĪ«å¹¶": 3504,
      "å£³": 3505,
      "å®ĮæĪĲæĹ¶": 3506,
      "ç¨³å®ļæĢ§": 3507,
      "åĲĪçĲĨçļĦ": 3508,
      "éĺ²çº¿": 3509,
      "åħŃéĥ¨": 3510,
      "åı¶ç»¿": 3511,
      "right": 3512,
      "Flow": 3513,
      "Ġç®Ģåįķ": 3514,
      "ä¸´": 3515,
      "è§¦": 3516,
      "å¦Ĥä¸ĭ": 3517,
      "ä¸İåħ¶ä»ĸ": 3518,
      "æĹ¶ä»£": 3519,
      "Ġ20": 3520,
      "è¡ĮåĬ¨": 3521,
      "æŃ£åľ¨": 3522,
      "æķ°æį®çļĦ": 3523,
      "æŁĲç§į": 3524,
      "æĺ¯åĲ¦ä¸º": 3525,
      "çİ°åľ¨åĪĨè¯į": 3526,
      "Ġå¸¸è§ģéĶĻè¯¯æıĲç¤º": 3527,
      "èº«ä½ĵ": 3528,
      "åĬłæ·±å¯¹": 3529,
      "åĳĪçİ°": 3530,
      "æĸĩèīºå¤įåħ´": 3531,
      "çļĦåĬ¨ä½ľ": 3532,
      "å¤¹": 3533,
      "æľīéĻĲ": 3534,
      "åİŁçĶµæ±ł": 3535,
      "æĮĩä»¤": 3536,
      "å¹³çŃī": 3537,
      "è½¬åıĺ": 3538,
      "çİ¯ä¿Ŀ": 3539,
      "å£«": 3540,
      "å¾Ģå¾Ģ": 3541,
      "æĽ¿æį¢": 3542,
      "å±ķçİ°äºĨ": 3543,
      "ensorFlow": 3544,
      "åĮĢåıĺéĢŁçĽ´çº¿è¿ĲåĬ¨": 3545,
      "NO": 3546,
      "if": 3547,
      "Ġé¦ĸåħĪ": 3548,
      "åı«": 3549,
      "Ġ**âĢľ": 3550,
      "å½¢çĬ¶": 3551,
      "é¡¶": 3552,
      "åħ¥å°Ħ": 3553,
      "æĬĢèĥ½": 3554,
      "è¯Ńè¨Ģè¡¨è¾¾": 3555,
      "åĬ¿èĥ½": 3556,
      "æķ°åŃ¦ä¸Ń": 3557,
      "çī©çĲĨéĩı": 3558,
      "å¨ģ": 3559,
      "}^": 3560,
      "æĪĬ": 3561,
      "ä¸Ģæ®µ": 3562,
      "ä¸Ģç¯ĩ": 3563,
      "è®ºè¿°": 3564,
      "æĦŁæŁĵ": 3565,
      "è¯Ĺäºº": 3566,
      "ass": 3567,
      "å¯¹åºĶçļĦ": 3568,
      "ç¬¬äºĮå®ļå¾ĭ": 3569,
      "åī¯è¯į": 3570,
      "èĻļæĭŁè¯Ńæ°Ķ": 3571,
      "æī¹åĪ¤": 3572,
      "æĮĳæĪĺ": 3573,
      "):": 3574,
      "She": 3575,
      "it": 3576,
      "æ½": 3577,
      "Ġl": 3578,
      "Ġæİ¢è®¨": 3579,
      "çļĦäºº": 3580,
      "ç»©": 3581,
      "åĴĮæ°´": 3582,
      "èĥ½æºĲ": 3583,
      "å°ıè¯´": 3584,
      "è½¬æĬĺ": 3585,
      "ç²Ĺ": 3586,
      "éĢĤå½ĵ": 3587,
      "æĥħæĦŁè¡¨è¾¾": 3588,
      "å¾®ç§¯åĪĨ": 3589,
      "å·¥ä¸ļçĶŁäº§": 3590,
      "ĠFe": 3591,
      "åįıè°ĥ": 3592,
      "å½Ĵçº³": 3593,
      "èĴ¸åıĳ": 3594,
      "ç«ĸçĽ´": 3595,
      "ame": 3596,
      "è¿ħ": 3597,
      "çĶ¨è¯į": 3598,
      "è´¡": 3599,
      "çŃīæĸ¹éĿ¢": 3600,
      "çĽ¸ä½į": 3601,
      "èĩªèº«": 3602,
      "æĥħç»ª": 3603,
      "çĽ´è§Ĵ": 3604,
      "âĤĦ": 3605,
      "åĮĸåŃ¦èĥ½": 3606,
      "åħīçħ§": 3607,
      "å¸¦æĿ¥": 3608,
      "orch": 3609,
      "ä¸Ģå®ļçļĦ": 3610,
      "æīįèĥ½": 3611,
      "æ¬§æ´²": 3612,
      "æŃ¦å¸Ŀ": 3613,
      "é¼ĵ": 3614,
      "åĲĮæºĲæŁĵèī²ä½ĵ": 3615,
      "NLP": 3616,
      "de": 3617,
      "ne": 3618,
      "èĵ": 3619,
      "çļĦä¸įåĲĮ": 3620,
      "çļĦä½¿çĶ¨": 3621,
      "çļĦéĢīæĭ©": 3622,
      "è¿ĩåº¦": 3623,
      "ä¼ı": 3624,
      "åĬ¨çī©": 3625,
      "åľ°å£³": 3626,
      "è¾Ĳ": 3627,
      "æ±¡": 3628,
      "ç«Ļ": 3629,
      "æĶ¿åħļ": 3630,
      "å¢ŀå¤§": 3631,
      "ç§¯ç´¯": 3632,
      "è¯´æľį": 3633,
      "èĥ½éĩıæµģåĬ¨": 3634,
      "çĥŃåĬĽ": 3635,
      "å±Ĥæ¬¡": 3636,
      "èĭ±è¯Ńä¸Ń": 3637,
      "æİ¨å¯¼è¿ĩç¨ĭ": 3638,
      "åĬ¨èĥ½å®ļçĲĨ": 3639,
      "åį«æĺŁ": 3640,
      "è¿½æ±Ĥ": 3641,
      ")\\)": 3642,
      "Torch": 3643,
      "yTorch": 3644,
      "æĪĮ": 3645,
      "è¦ģç´ł": 3646,
      "éĢļè¿ĩä¸Ĭè¿°": 3647,
      "åľ°è´¨": 3648,
      "æ±Ł": 3649,
      "æ¨¡æĿ¿": 3650,
      "ç»ıéªĮ": 3651,
      "è§Ħæ¨¡": 3652,
      "å®ĥçļĦ": 3653,
      "å®ĥéĢļè¿ĩ": 3654,
      "åı¯èĥ½æĢ§": 3655,
      "ç£·": 3656,
      "åĩĨç¡®åľ°": 3657,
      "åĪĽå»º": 3658,
      "æķ£æĸĩ": 3659,
      "Ġåħ³éĶ®çŁ¥è¯ĨçĤ¹": 3660,
      "æĪĬæĪĮ": 3661,
      "è¿ħéĢŁ": 3662,
      "çĵ": 3663,
      "çļĦåĨħå®¹": 3664,
      "è¿Ń": 3665,
      "è¯įæł¹": 3666,
      "éĻ©": 3667,
      "æĿ¥è¡¨ç¤º": 3668,
      "æĦıåĽ¾": 3669,
      "äºĭæĥħ": 3670,
      "èĢĮéĿŀ": 3671,
      "æĿ¡ä»¶æ¦Ĥçİĩ": 3672,
      "æİĮæı¡è¿ĻäºĽ": 3673,
      "å§Ĩ": 3674,
      "è¥¿æĸ¹": 3675,
      "èĩªçĶ±ç»ĦåĲĪ": 3676,
      "åľ¨å®ŀéĻħåºĶçĶ¨": 3677,
      "çĶµç¦»å¹³è¡¡": 3678,
      "æļĹåıįåºĶ": 3679,
      "æ¢¯åº¦ä¸ĭéĻį": 3680,
      "ç§©åºı": 3681,
      "è´¡çĮ®": 3682,
      "èĹ": 3683,
      "Ġä¸ŃåĽ½": 3684,
      "çļĦè®¡ç®Ĺ": 3685,
      "æľīä¸Ģä¸ª": 3686,
      "æ¯Ĵ": 3687,
      "ä¹łæĥ¯": 3688,
      "åĳĬ": 3689,
      "èĩªæĪĳ": 3690,
      "æĺİæĺ¾": 3691,
      "æ°§åĳ¼åĲ¸": 3692,
      "åĮĸåŃ¦æĸ¹ç¨ĭå¼ı": 3693,
      "ation": 3694,
      "åıĤèĢĥ": 3695,
      "èį£": 3696,
      "æģĴå®ļ": 3697,
      "åĪĴåĪĨ": 3698,
      "æĶ¶åħ¥åĪĨéħį": 3699,
      "earn": 3700,
      "å°¤åħ¶": 3701,
      "çĶµåĬ¨åĬ¿": 3702,
      "æĪĲç»©": 3703,
      "åľ°éľĩ": 3704,
      "æĦıå¢ĥ": 3705,
      "æ´¾": 3706,
      "æŃ£æ¯Ķ": 3707,
      "éģį": 3708,
      "ç©·": 3709,
      "åī²": 3710,
      "Ġ(-": 3711,
      "èĻ«": 3712,
      "Ġmol": 3713,
      "ç²¾ç¡®": 3714,
      "åĪĽéĢł": 3715,
      "æİ¢ç´¢": 3716,
      "èĥĮåĲİçļĦ": 3717,
      "å¸®åĬ©åŃ¦çĶŁçĲĨè§£": 3718,
      "éĹŃåĲĪ": 3719,
      "åĢĴè£ħåı¥": 3720,
      "è¾Ĳå°Ħ": 3721,
      "æ±¡æŁĵ": 3722,
      "è¿Ńä»£": 3723,
      "æĸĹ": 3724,
      "æĺ¯å°Ĩ": 3725,
      "ä¸Ģä¸ĭ": 3726,
      "æľīçĲĨ": 3727,
      "éĢļè¿ĩåĪĨæŀĲ": 3728,
      "è¿Ļä¸¤ä¸ª": 3729,
      "åı¯ä»¥å¸®åĬ©æĪĳä»¬": 3730,
      "éĺ´": 3731,
      "å°Ĩä»ĭç»į": 3732,
      "è®¾ç½®": 3733,
      "å°ıæķ°": 3734,
      "å°ıæĹ¶": 3735,
      "è¯´è¯Ŀ": 3736,
      "å½¢æĪĲäºĨ": 3737,
      "Ġst": 3738,
      "Ġsin": 3739,
      "è®¤çŁ¥": 3740,
      "æ¿Ģæ´»": 3741,
      "çĪ¬": 3742,
      "è¿ĩåİ»åĪĨè¯į": 3743,
      "çĽ¸åĲĮçļĦ": 3744,
      "åĪºæ¿Ģ": 3745,
      "éĻĪè¿°": 3746,
      "(\"": 3747,
      "))": 3748,
      "çļĦåİŁåĪĻ": 3749,
      "åĪĨæ³": 3750,
      "æĢ§ä¸İ": 3751,
      "æĢ§ä»İåı¥": 3752,
      "æĽ´æ·±åħ¥": 3753,
      "ä¿Ŀè¯ģ": 3754,
      "ten": 3755,
      "æĸĩåĮĸçļĦ": 3756,
      "åĬĽçļĦä½ľçĶ¨": 3757,
      "åĪĨåĪ«ä¸º": 3758,
      "éĩĩåıĸ": 3759,
      "ä¸ĿåĪĨè£Ĥ": 3760,
      "åĲĳå¿ĥåĬĽ": 3761,
      "åĪĨæ³Į": 3762,
      "Lum": 3763,
      "Learn": 3764,
      "iLearn": 3765,
      "mu": 3766,
      "ĠçŃĶæ¡Ī": 3767,
      "ĠæĢ»ç»ĵ": 3768,
      "åŃ¦ç§ĳ": 3769,
      "åĮĸçļĦ": 3770,
      "å½©": 3771,
      "ç»ĵæĿŁ": 3772,
      "æĦıè¯Ĩ": 3773,
      "åĨħå¿ĥ": 3774,
      "åıĳå±ķçļĦ": 3775,
      "æĺ¯æĮĩéĢļè¿ĩ": 3776,
      "éķ¿æľŁ": 3777,
      "åĽ½å®¶æ²»çĲĨ": 3778,
      "éĢĤçĶ¨": 3779,
      "è´¨éĩıä¸º": 3780,
      "é¦ĸé¡¹": 3781,
      "Ġpar": 3782,
      "åŁºåĽłçªģåıĺ": 3783,
      "çĸ¾": 3784,
      "NADP": 3785,
      "éĿĻæŃ¢": 3786,
      "çĨŁç»ĥ": 3787,
      "ransfor": 3788,
      "LumiLearn": 3789,
      "LumiLearnç³»ç»Ł": 3790,
      "45": 3791,
      "API": 3792,
      "Cu": 3793,
      "Ġ#": 3794,
      "Ġq": 3795,
      "ĠæĢ»": 3796,
      "çļĦä¸Ģä¸ª": 3797,
      "çļĦè¡Įä¸º": 3798,
      "äº²": 3799,
      "è¿Ķ": 3800,
      "å¯Ĵ": 3801,
      "æ³ķæĭī": 3802,
      "æıŃ": 3803,
      "æĪĲæŃ£æ¯Ķ": 3804,
      "è¾¨": 3805,
      "åĪ¶éĢł": 3806,
      "é«ĺåİŁ": 3807,
      "è§Ħå®ļ": 3808,
      "æĢģåº¦": 3809,
      "å°ıäºİ": 3810,
      "ç¦ı": 3811,
      "åī©": 3812,
      "ĊĠĠĠĠ": 3813,
      "å¤ĦçļĦ": 3814,
      "èįī": 3815,
      "left": 3816,
      "åĿĩåĮĢ": 3817,
      "çľģçķ¥": 3818,
      "ä¸ºåĲİæĿ¥çļĦ": 3819,
      "åĲĮåŃ¦ä»¬": 3820,
      "begin": 3821,
      "ç¹ģèį£": 3822,
      "ç½Ĺé©¬æ³ķ": 3823,
      "æī¹åĪ¤æĢ§": 3824,
      ")}": 3825,
      "HCl": 3826,
      "TensorFlow": 3827,
      "é¢Ŀ": 3828,
      "åį°": 3829,
      "åįģ": 3830,
      "ä¸ĭåĪĹ": 3831,
      "æµģçķħ": 3832,
      "âĤĢ": 3833,
      "çľ¼": 3834,
      "å®ĮåĸĦ": 3835,
      "å¦Ĥä½ķä½¿çĶ¨": 3836,
      "åĳ¨åĽ´": 3837,
      "æķ°åŃ¦åħ¬å¼ı": 3838,
      "ä¸¾ä¾ĭ": 3839,
      "é©±": 3840,
      "çº¦æĿŁ": 3841,
      "åĨľä¸ļçĶŁäº§": 3842,
      "çī¹æ®Ĭåı¥å¼ı": 3843,
      "æĸľçİĩ": 3844,
      "åĮºä½įåĽłç´ł": 3845,
      "ä¿®è¾ŀæīĭæ³ķ": 3846,
      "èĥľåĪ©": 3847,
      "åģļçļĦåĬŁ": 3848,
      "ransformer": 3849,
      "AåĴĮ": 3850,
      "ga": 3851,
      "ĠO": 3852,
      "Ġä»İ": 3853,
      "Ġme": 3854,
      "çļĦæ¯Ķä¾ĭ": 3855,
      "è¯¢": 3856,
      "åĴĮåºĶçĶ¨": 3857,
      "ä¸įå®ļ": 3858,
      "éĶĢ": 3859,
      "çī¹èī²": 3860,
      "åħ³ç³»è¯į": 3861,
      "ä¸»è¦ģåĮħæĭ¬": 3862,
      "è¡¡éĩı": 3863,
      "åģĩè®¾ä½ł": 3864,
      "äºĶåĽĽ": 3865,
      "èĦĳ": 3866,
      "å±ħæ°ĳ": 3867,
      "èĩªçĦ¶è¯Ńè¨Ģå¤ĦçĲĨ": 3868,
      "é¼ĵåĬ±": 3869,
      "æĪĬæĪĮåıĺæ³ķ": 3870,
      "Ġç¡®ä¿Ŀ": 3871,
      "ĠæĶ¿åºľ": 3872,
      "äº¬": 3873,
      "è¿ĩäºİ": 3874,
      "çŃīæĸ¹å¼ı": 3875,
      "æĿ¥å®ŀçİ°": 3876,
      "åĵ²": 3877,
      "å¹¶ä¸º": 3878,
      "å¤§éĻĨ": 3879,
      "ç»ıåħ¸": 3880,
      "èµĭ": 3881,
      "æŃ£è´Ł": 3882,
      "è¯¯è®¤ä¸º": 3883,
      "çİ¯å¢ĥä¿ĿæĬ¤": 3884,
      "éģĵéĺ²çº¿": 3885,
      "è´Łè½½": 3886,
      "Ġprint": 3887,
      "åĲįè¯įæĢ§ä»İåı¥": 3888,
      "éģĹä¼łä¿¡æģ¯": 3889,
      "å¹¿æ³ĽçļĦåºĶçĶ¨": 3890,
      "ä¸Ńåįİæ°ĳæĹı": 3891,
      "åĨ²çªģ": 3892,
      "åĨ¬åŃ£": 3893,
      "mathbf": 3894,
      "è®¿éĹ®": 3895,
      "æıŃç¤º": 3896,
      "40": 3897,
      "çļĦæĦıæĢĿ": 3898,
      "æĪı": 3899,
      "çĶŁæ®ĸ": 3900,
      "Ġ12": 3901,
      "åľ°è¡¨": 3902,
      "è¾ħ": 3903,
      "æĿ¥è¡¨è¾¾": 3904,
      "é«ĺæ¸©": 3905,
      "å¯¼çº¿": 3906,
      "ç»ıæµİå¢ŀéķ¿": 3907,
      "èĭı": 3908,
      "å±ŀæĢ§": 3909,
      "çĥŃåĬĽåŃ¦": 3910,
      "ç¦»åŃĲéĶ®": 3911,
      "åįĩé«ĺ": 3912,
      "tan": 3913,
      "èĦī": 3914,
      "}\\)ï¼Į": 3915,
      "æī©æķ£": 3916,
      "æĮ¯å¹ħ": 3917,
      "able": 3918,
      "çĸ¾çĹħ": 3919,
      "æ³ķæĭīç¬¬": 3920,
      ")}{": 3921,
      "hi": 3922,
      "python": 3923,
      "Ġä¸Ń": 3924,
      "Ġä¾ĭé¢ĺ": 3925,
      "åıĻ": 3926,
      "æķ°ä¸º": 3927,
      "èµĽ": 3928,
      "åĽłæŀľ": 3929,
      "æĻļ": 3930,
      "åģļåĩº": 3931,
      "æŀģå¤§": 3932,
      "Ġcos": 3933,
      "è¯¥çĤ¹": 3934,
      "æŁ¥æī¾": 3935,
      "è¡¨çİ°åĩº": 3936,
      "ç¼ºå¤±": 3937,
      "ç¬¬ä¸Ģå®ļå¾ĭ": 3938,
      "è´£ä»»": 3939,
      "ç»Ļå®ļçļĦ": 3940,
      "å®ıè§Ĥè°ĥæİ§": 3941,
      "é¾Ħ": 3942,
      "LumiLearnç³»ç»Łå¼Ģåıĳ": 3943,
      "Transformer": 3944,
      "au": 3945,
      "sp": 3946,
      "Ġè§£çŃĶ": 3947,
      "Ġéĩįè¦ģæ¦Ĥå¿µ": 3948,
      "ĠçĶŁæ´»ä¸ŃçļĦä¾ĭåŃĲ": 3949,
      "çļĦåĬĽ": 3950,
      "çļĦè·Ŀç¦»": 3951,
      "åĮĸç®Ģ": 3952,
      "æľīåħ³": 3953,
      "è¯ŃéŁ³": 3954,
      "æĮĩä»£": 3955,
      "åĨħæ¶µ": 3956,
      "her": 3957,
      "æ¬¢": 3958,
      "äº¤åıī": 3959,
      "Ġshe": 3960,
      "éļıæĹ¶éĹ´": 3961,
      "éŁµ": 3962,
      "åĬ¨æĢģå¹³è¡¡": 3963,
      "Ġex": 3964,
      "ect": 3965,
      "æĬ½è±¡": 3966,
      "ä¾Ŀèµĸäºİ": 3967,
      "ä¾Ŀæ³ķè¡ĮæĶ¿": 3968,
      "è¿ĶåĽŀ": 3969,
      ")$": 3970,
      "PyTorch": 3971,
      "ig": 3972,
      "}\\": 3973,
      "çļĦçĬ¶æĢģ": 3974,
      "çļĦè¯įè¯Ń": 3975,
      "åĬª": 3976,
      "ä¹İ": 3977,
      "åºĶä¸º": 3978,
      "çŃīåĽłç´ł": 3979,
      "æĮĩåĲĳ": 3980,
      "å®ĥæĺ¯": 3981,
      "åĿı": 3982,
      "å½±åĵįäºĨ": 3983,
      "åŃ¦çĶŁå°Ĩèĥ½å¤Ł": 3984,
      "ä¸īçľģ": 3985,
      "ç®Ģè°Ĳ": 3986,
      "å¦Ĥä½ķåĪ©çĶ¨": 3987,
      "ç»ĨèĥŀåĪĨè£Ĥ": 3988,
      "æĺ¯åĲ¦æŃ£ç¡®": 3989,
      "å¤±åİ»": 3990,
      "å¹¿æ³ĽåºĶçĶ¨": 3991,
      "Ġgo": 3992,
      "æľīæľºåıįåºĶ": 3993,
      "æ°ĳä¸»æĶ¿æ²»": 3994,
      "æĬķèµĦ": 3995,
      "æ±īæŃ¦å¸Ŀ": 3996,
      "åĿļæĮģ": 3997,
      "éļĲæĢ§": 3998,
      "åįķè°ĥæĢ§": 3999,
      "èļ": 4000,
      "ĠæĪĸ": 4001,
      "ģè®¸": 4002,
      "åħģè®¸": 4003,
      "ä¹±": 4004,
      "æľīä¸ĿåĪĨè£Ĥ": 4005,
      "ç¤¼": 4006,
      "å¯¹å¤ĸ": 4007,
      "åıĳæĮ¥": 4008,
      "åıįä¹ĭ": 4009,
      "å¹³åİŁ": 4010,
      "æŃ£ä¹ī": 4011,
      "æĻ¶": 4012,
      "è·³": 4013,
      "æ°´çļĦ": 4014,
      "æ´»çĶ¨": 4015,
      "åŁºæľ¬åİŁçĲĨ": 4016,
      "æľĢé«ĺ": 4017,
      "çĶŁæĪĲçī©": 4018,
      "çļĦåŁºæľ¬æĢ§è´¨": 4019,
      "æĹłç©·": 4020,
      "éŁ³ä¹Ĳ": 4021,
      "éĺ³åħī": 4022,
      "è¿ĩåİ»æĹ¶": 4023,
      "çº¦ä¸º": 4024,
      "lim": 4025,
      "è½½ä½ĵ": 4026,
      "ĠâīĪ": 4027,
      "åĶ¯çī©": 4028,
      "æīĵä¸ĭåĿļå®ŀçļĦåŁºç¡Ģ": 4029,
      "æ´ĭåĬ¡è¿ĲåĬ¨": 4030,
      "NADPH": 4031,
      "ut": 4032,
      "ĠåİŁçĲĨ": 4033,
      "ï¼Į$": 4034,
      "æĺ¯å¤ļå°ĳ": 4035,
      "çīĪ": 4036,
      "ç®Ń": 4037,
      "æŀĦéĢł": 4038,
      "å®ļä¹īä¸İ": 4039,
      "å¼ºçĥĪ": 4040,
      "åĩ½æķ°åĢ¼": 4041,
      "ä¸¤è¾¹": 4042,
      "æľĢä¼ĺ": 4043,
      "èĬĤå¥ı": 4044,
      "çĥ§": 4045,
      "ç¡®ä¿ĿäºĨ": 4046,
      "èĩªçĦ¶çķĮ": 4047,
      "éĢļå¸¸çĶ¨äºİ": 4048,
      "åĪĿä¸Ń": 4049,
      "åĽĽä¸ª": 4050,
      "çļĦä¸Ģéĥ¨åĪĨ": 4051,
      "çĶµè§£æ±ł": 4052,
      "çĶµè·¯ä¸Ń": 4053,
      "æ·»åĬł": 4054,
      "çº¬åº¦": 4055,
      "èĹı": 4056,
      "og": 4057,
      "Ġè¿Ļç§į": 4058,
      "çļĦè¡¨çİ°": 4059,
      "äº®": 4060,
      "åľ¨çī¹å®ļ": 4061,
      "åıįæ°ĶæĹĭ": 4062,
      "åĬłç²Ĺ": 4063,
      "åī§": 4064,
      "æľ¯è¯Ń": 4065,
      "åĲĦä¸ª": 4066,
      "éĢĴå¢ŀ": 4067,
      "ä»·åĢ¼è§Ħå¾ĭ": 4068,
      "æĹ¨åľ¨éĢļè¿ĩ": 4069,
      "åİŁåŃĲåºı": 4070,
      "åĽ¢éĺŁ": 4071,
      "DNAå¤įåĪ¶": 4072,
      "ĠçŁ¥è¯ĨçĤ¹ä¹ĭéĹ´çļĦèģĶç³»": 4073,
      "éĻĦè¿ĳ": 4074,
      "äº§çĶŁäºĨæ·±è¿ľå½±åĵį": 4075,
      "90": 4076,
      "am": 4077,
      "up": 4078,
      "Ġè¿Ļä¸ª": 4079,
      "çļ®": 4080,
      "åĴĮæĸ¹åĲĳ": 4081,
      "æĺ¯åħ³éĶ®": 4082,
      "æĪĲéķ¿": 4083,
      "å¾ħ": 4084,
      "åĽ½æ°ĳ": 4085,
      "ä¼ļåıĳçĶŁ": 4086,
      "åĪĻæľī": 4087,
      "å¤§éĿ©åĳ½": 4088,
      "è°¢": 4089,
      "æłĩæ³¨": 4090,
      "ç®ĢçŃĶé¢ĺ": 4091,
      "æĿ¡ä»¶ä¸ĭçļĦ": 4092,
      "åĩĨç¡®æĢ§åĴĮ": 4093,
      "è®®ä¼ļ": 4094,
      "å®ĥä»¬åľ¨": 4095,
      "åĨĻä½ľä¸Ń": 4096,
      "çĽĲç±»": 4097,
      "æ°¢æ°§åĮĸ": 4098,
      "çīĽé¡¿ç¬¬äºĮå®ļå¾ĭ": 4099,
      "æĸĩåŃ¦ä½ľåĵģ": 4100,
      "çıŃ": 4101,
      "åħ¥å°Ħè§Ĵ": 4102,
      "é©±åĬ¨": 4103,
      "Ġå¯¹äºİ": 4104,
      "çļĦå°ı": 4105,
      "çļĦåı¥åŃĲ": 4106,
      "çļĦå·¥ä½ľ": 4107,
      "å®ĭ": 4108,
      "æķ°ç»Ħ": 4109,
      "åĨ°": 4110,
      "ä¼¤": 4111,
      "å»¶": 4112,
      "åħ±åĴĮ": 4113,
      "æ¯ıå¤©": 4114,
      "å¹´çļĦ": 4115,
      "åħĥç´łåĳ¨æľŁ": 4116,
      "è¾ĥé«ĺ": 4117,
      "ä¸ľè¥¿": 4118,
      "ich": 4119,
      "Ġit": 4120,
      "å®Ĺæ³ķ": 4121,
      "å®ĹæķĻ": 4122,
      "æ¬§å§Ĩ": 4123,
      "éĴĪå¯¹": 4124,
      "ä¸»è°ĵä¸Ģèĩ´": 4125,
      "hich": 4126,
      "ry": 4127,
      "sum": 4128,
      "çļĦæĦıä¹ī": 4129,
      "ä¸ºä¸»": 4130,
      "çŃ¾": 4131,
      "åį±": 4132,
      "åŃĲéĽĨ": 4133,
      "çĶµè´Ł": 4134,
      "å®ŀè¡Į": 4135,
      "çİ°å®ŀ": 4136,
      "è½®": 4137,
      "åĩºçİ°åľ¨": 4138,
      "æŃ£å¸¸": 4139,
      "è·ĳ": 4140,
      "è®¡ç®Ĺåĩº": 4141,
      "åıĺåĮĸè§Ħå¾ĭ": 4142,
      "ted": 4143,
      "ç³»ç»Łä¸Ń": 4144,
      "çĬ¶åĨµ": 4145,
      "åı¯èĥ½çļĦ": 4146,
      "æº¶è´¨": 4147,
      "éĥ½èĥ½": 4148,
      "éĴ±": 4149,
      "æĺ¯åĲ¦ç¬¦åĲĪ": 4150,
      "åĪĿæŃ¥": 4151,
      "that": 4152,
      "ä¹ĺç§¯": 4153,
      "Ġå®ļä¹īä¸İåİŁçĲĨ": 4154,
      "æĹ¶æľŁçļĦ": 4155,
      "æĤī": 4156,
      "æ°¯åĮĸ": 4157,
      "çĨŁæĤī": 4158,
      "æ¸¸æĪı": 4159,
      "å¹³æĬĽè¿ĲåĬ¨": 4160,
      "åı¶ç»¿ä½ĵ": 4161,
      "çĪ¬èĻ«": 4162,
      "åĬªåĬĽ": 4163,
      "14": 4164,
      "GPU": 4165,
      "Ġå·²çŁ¥": 4166,
      "**ãĢĤ": 4167,
      "åºŁ": 4168,
      "å¼§": 4169,
      "âĢĿ**ï¼ļ": 4170,
      "çĽ¸ç»ĵåĲĪ": 4171,
      "å¥Ĺ": 4172,
      "æķ°æį®åĪĨæŀĲ": 4173,
      "é£İæł¼": 4174,
      "ç®ĢåįķæĿ¥è¯´": 4175,
      "éĤ¦": 4176,
      "å¢ŀéķ¿çİĩ": 4177,
      "å¥ĩåģ¶": 4178,
      "ç´§å¯Ĩ": 4179,
      "èī¯å¥½çļĦ": 4180,
      "éĨĩ": 4181,
      "è´Łè½½åĿĩè¡¡": 4182,
      "\")": 4183,
      "pmatrix": 4184,
      "çļĦçŁ¥è¯Ĩ": 4185,
      "åĪļ": 4186,
      "ä¹¡": 4187,
      "åĴĮçĲĨè§£": 4188,
      "åľ¨ç£ģåľº": 4189,
      "èĥ°": 4190,
      "åĪĨéĩı": 4191,
      "Ġ-\\": 4192,
      "åŃ¦èĢħ": 4193,
      "æĪĲåĳĺ": 4194,
      "æįī": 4195,
      "äººæĸĩ": 4196,
      "æĬµ": 4197,
      "æľ¬ä¹¦": 4198,
      "åİŁæĸĩ": 4199,
      "åĨħèĥ½": 4200,
      "æ²Ł": 4201,
      "å®ĥå¸®åĬ©æĪĳä»¬": 4202,
      "éĽħ": 4203,
      "æĺİæľĿ": 4204,
      "ï¼ŁâĢĿ": 4205,
      "éĹ®é¢ĺæĹ¶": 4206,
      "ç¤¾ä¼ļåħ¬å¹³": 4207,
      "åıĳå±ķçĲĨå¿µ": 4208,
      "åĮĸåŃ¦å¹³è¡¡": 4209,
      "æŃ£ç¡®æĢ§": 4210,
      "èµĦæľ¬": 4211,
      "åıĤåĬł": 4212,
      "åĽĽåŃ£": 4213,
      "åķĨä¸ļ": 4214,
      "çĶµåľºä¸Ń": 4215,
      "åıªèĥ½": 4216,
      "æ¯Ķè¾ĥä¸įåĲĮ": 4217,
      "çļĩå¸Ŀ": 4218,
      "åĪĨå°ģåĪ¶": 4219,
      "æĬĹæĹ¥æĪĺäºī": 4220,
      "èĵĿ": 4221,
      "ĠåĨħå®¹": 4222,
      "**ï¼Ī": 4223,
      "ä½³": 4224,
      "ä¸Ńæľī": 4225,
      "ä¸ŃéĹ´": 4226,
      "åĪĨæ®µ": 4227,
      "åĩĢ": 4228,
      "ç§ĭ": 4229,
      "çº¸": 4230,
      "åĲĮæł·": 4231,
      "æĬĵ": 4232,
      "å¹¶è¿Ľè¡Į": 4233,
      "å¹¶è§£éĩĬ": 4234,
      "æ°Ķæ¸©": 4235,
      "ä¹ĭåĴĮ": 4236,
      "å¤Ħäºİ": 4237,
      "åŁºç¡ĢçŁ¥è¯Ĩ": 4238,
      "æĸ¹åĲĳä¸İ": 4239,
      "ç»ĨèĥŀçļĦ": 4240,
      "åİ»åħ¬åĽŃ": 4241,
      "åıĹåĬĽ": 4242,
      "è¿Ļä¸ĢçŁ¥è¯ĨçĤ¹": 4243,
      "å¾®æľįåĬ¡": 4244,
      "çĽĲéħ¸": 4245,
      "çº¿æĢ§ä»£æķ°": 4246,
      "åı¦ä¸Ģ": 4247,
      "ä¸ĵåĪ¶": 4248,
      "åľŁåľ°": 4249,
      "ä¼´æĢ§éģĹä¼ł": 4250,
      "178": 4251,
      "ä¸įå®ļå¼ı": 4252,
      "èļĢ": 4253,
      "}}{": 4254,
      "èķ": 4255,
      "Ġè®¾": 4256,
      "Ġè¿ĻäºĽ": 4257,
      "åľ¨æŁĲäºĽ": 4258,
      "åĽ°": 4259,
      "åĪĨéĴŁ": 4260,
      "åŃ¦ä¸Ń": 4261,
      "æľīæ°§åĳ¼åĲ¸": 4262,
      "æĪĸåħ¶ä»ĸ": 4263,
      "ç¨Ģ": 4264,
      "åħ¬æŃ£": 4265,
      "æŃ£æĢģ": 4266,
      "ord": 4267,
      "ork": 4268,
      "åĲĮæĹ¶ä¹Ł": 4269,
      "åĿĩåĢ¼": 4270,
      "äººçī©çļĦ": 4271,
      "å®ĺåĳĺ": 4272,
      "åĭĴ": 4273,
      "åĮ»çĸĹ": 4274,
      "æŃ»äº¡": 4275,
      "äºĶåĽĽè¿ĲåĬ¨": 4276,
      "çļĦåĢ¼": 4277,
      "åħ«": 4278,
      "çĶŁçĲĨ": 4279,
      "çŃīåĨħå®¹": 4280,
      "çĶµèĥ½": 4281,
      "å±ı": 4282,
      "ç¡®è®¤": 4283,
      "æĭħ": 4284,
      "åĪ¶ä½ľ": 4285,
      "éĩįè¦ģä½ľçĶ¨": 4286,
      "ä¸Ģä¸ªç®ĢåįķçļĦ": 4287,
      "æŃ£å¼ı": 4288,
      "æĺİæ¸ħ": 4289,
      "ä¿ĿçķĻ": 4290,
      "åĪĹåĩº": 4291,
      "ä¸¤çĤ¹": 4292,
      "å¼ķåıĳ": 4293,
      "ä¼ĺåħĪ": 4294,
      "æł¼å¼ı": 4295,
      "ä½Ĩä¸į": 4296,
      "èµĦæºĲåĪĨéħį": 4297,
      "èĴĻ": 4298,
      "åħ¨éĿ¢çĲĨè§£": 4299,
      "æ¿Ģç´łè°ĥèĬĤ": 4300,
      "åĬłæ·±çĲĨè§£": 4301,
      "tud": 4302,
      "å¼Ĥå¸¸å¤ĦçĲĨ": 4303,
      "è¯´æľįåĬĽ": 4304,
      "©åĽº": 4305,
      "ä¸Ńåħ·æľī": 4306,
      "åľ¨ä¸Ģèµ·": 4307,
      "æ°Ľ": 4308,
      "åı¯éĢĨ": 4309,
      "æĪĸå¤ļä¸ª": 4310,
      "å·©åĽº": 4311,
      "äººä½ĵ": 4312,
      "çĲĨè§£è¿ĻäºĽ": 4313,
      "åı¯ä»¥å¸®åĬ©": 4314,
      "è°ģ": 4315,
      "é¡µ": 4316,
      "èĩªæ³¨æĦıåĬĽæľºåĪ¶": 4317,
      "åĲİä»£": 4318,
      "æł¹æľ¬": 4319,
      "Ġtable": 4320,
      "åħ¸åŀĭçļĦ": 4321,
      "æĶ¹åĸĦ": 4322,
      "éħ¸ç¢±": 4323,
      "è¯·éĹ®": 4324,
      "åĨĽéĺŁ": 4325,
      "èħĲ": 4326,
      "ĠShe": 4327,
      "åŃ£é£İçİ¯æµģ": 4328,
      "çł´åĿı": 4329,
      "èĪªå¤©": 4330,
      "æįķæįī": 4331,
      "åª": 4332,
      "ĠæĹ¶éĹ´": 4333,
      "åĪł": 4334,
      "è¿ģ": 4335,
      "éĢģ": 4336,
      "åľ¨åŃ¦ä¹ł": 4337,
      "çĲĨæĢ§": 4338,
      "è¿ĩæĭŁåĲĪ": 4339,
      "çī©ç§į": 4340,
      "åħ³èģĶ": 4341,
      "ä¸ŃçļĦåħ³éĶ®": 4342,
      "é«ĺåİĭ": 4343,
      "ä¸ŃåĽ½ç»ıæµİ": 4344,
      "éħįå¯¹": 4345,
      "åħīçļĦ": 4346,
      "éĢļå¸¸çĶ±": 4347,
      "åĲĳéĩıçļĦ": 4348,
      "éĤ»": 4349,
      "ï¼Į\\(\\": 4350,
      "æĲľ": 4351,
      "è¿ŀæİ¥è¯į": 4352,
      "åı¦ä¸Ģç§į": 4353,
      "åħ´è¶£": 4354,
      "åįıè®®": 4355,
      "æĮĩæķ°åĩ½æķ°": 4356,
      "è¡¥åħħ": 4357,
      "å²Ľ": 4358,
      "ĠéĢļè¿ĩä»¥ä¸ĬåĨħå®¹çļĦåŃ¦ä¹ł": 4359,
      "å¹Ĥåĩ½æķ°": 4360,
      "pha": 4361,
      "ç§¦æľĿ": 4362,
      "å°Ĭéĩį": 4363,
      "ight": 4364,
      "CR": 4365,
      "ck": 4366,
      "lla": 4367,
      "çļĦåħĥç´ł": 4368,
      "å¤«": 4369,
      "åĮ¹": 4370,
      "èĥ½å¸®åĬ©ä½ł": 4371,
      "ä¼¸": 4372,
      "åºĶè¯¥": 4373,
      "ä¸įè¶³": 4374,
      "ä¼ļè®®": 4375,
      "åı¯ä»¥æĺ¯": 4376,
      "ä¸ĭéĽ¨": 4377,
      "åĽłåŃĲ": 4378,
      "åĪĨæŀĲåħ¶": 4379,
      "éĿ¢å¯¹": 4380,
      "åįķè´¨": 4381,
      "ä¸ŃåĽ½äººæ°ĳ": 4382,
      "ç«ĭå®ª": 4383,
      "one": 4384,
      "å¯¼èĩ´çļĦ": 4385,
      "çĬ¶æĢģæĸ¹ç¨ĭ": 4386,
      "è¦ģæ±ĤèĢĥçĶŁ": 4387,
      "å£¤": 4388,
      "åı¤åħ¸": 4389,
      "ĠĠĠĠĠ": 4390,
      "ast": 4391,
      "alpha": 4392,
      "æľĢå¤§åĢ¼": 4393,
      "äºĮæ°§åĮĸç¡«": 4394,
      "è½»æĿ¾": 4395,
      "è¯¦ç»Ĩè§£æŀĲ": 4396,
      "åľŁå£¤": 4397,
      "çĶµç£ģæĦŁåºĶå®ļå¾ĭ": 4398,
      "æľīçĲĨæķ°": 4399,
      ":**": 4400,
      "})": 4401,
      "},": 4402,
      "æĿ¯": 4403,
      "çŃīåħ³éĶ®": 4404,
      "è¿Ļå°±æĺ¯": 4405,
      "åıĺä¸º": 4406,
      "çĶµæºĲ": 4407,
      "è´¨çĤ¹": 4408,
      "åı¯ä»¥ä½¿çĶ¨": 4409,
      "åĬłæĪĲ": 4410,
      "æĺİäºĨ": 4411,
      "åħ·å¤ĩ": 4412,
      "ï¼Łï¼Ī": 4413,
      "hen": 4414,
      "è½¬åĬ¨": 4415,
      "ç¤¾ä¼ļç»ıæµİ": 4416,
      "æ¨¡åŀĭæĢ§èĥ½": 4417,
      "æķĪåºĶ": 4418,
      "åŁºç¡Ģæ¦Ĥå¿µ": 4419,
      "éĢīæĭĶ": 4420,
      "å¹´é¾Ħ": 4421,
      "æ°§åĮĸåīĤ": 4422,
      "Ġmat": 4423,
      "èį¯": 4424,
      "ä¸įä»ħèĥ½å¤Ł": 4425,
      "çĽ¸åħ³çļĦ": 4426,
      "æľīåĬ©äºİæıĲé«ĺ": 4427,
      "åĽŀçŃĶ": 4428,
      "åĮĹäº¬": 4429,
      "å¸Įèħ": 4430,
      "å±±åľ°": 4431,
      "åħ±åĲĮä½ľçĶ¨": 4432,
      "åĪĩçº¿": 4433,
      "åĽ½éĻħåħ³ç³»": 4434,
      "å®¡é¢ĺ": 4435,
      "ç»§æī¿": 4436,
      "Ġç®Ģåįķç¤ºä¾ĭ": 4437,
      "æĦŁæŁĵåĬĽ": 4438,
      "æī¹åĪ¤æĢ§æĢĿç»´": 4439,
      "æŃ£æĢģåĪĨå¸ĥ": 4440,
      "å¸ĮèħĬ": 4441,
      "23": 4442,
      "aq": 4443,
      "ĠãĢĬ": 4444,
      "ä¸Ļ": 4445,
      "åı¬": 4446,
      "æĪ¿": 4447,
      "æĪĸçĬ¶æĢģ": 4448,
      "å¯¹åĲİ": 4449,
      "ç»ĵå°¾": 4450,
      "åħ¬æ¯Ķ": 4451,
      "æĭ¥": 4452,
      "åı¯ä»¥è¡¨ç¤ºä¸º": 4453,
      "åıįåĲĳä¼łæĴŃ": 4454,
      "æŃ£æĸ¹": 4455,
      "å¤ļæ¨¡åŀĭ": 4456,
      "æ°´åĪĨ": 4457,
      "å½ĵä½ł": 4458,
      "âĤĻ": 4459,
      "æ¡Į": 4460,
      "åħ±äº«": 4461,
      "ç²ī": 4462,
      "èĩªçĦ¶æĻ¯": 4463,
      "æĹ¥æľ¬": 4464,
      "èµĦæºĲçļĦ": 4465,
      "ard": 4466,
      "æº¶æ¶²ä¸ŃçļĦ": 4467,
      "å·²çŁ¥æĿ¡ä»¶": 4468,
      "çĪĨ": 4469,
      "æ°´å¹³æĸ¹åĲĳ": 4470,
      "åĽ¢ç»ĵ": 4471,
      "åĶ®": 4472,
      "çĹħåı¥": 4473,
      "è¿Ļæł·çļĦ": 4474,
      "éĢıéķľ": 4475,
      "äººæ°ĳä»£è¡¨å¤§ä¼ļåĪ¶åº¦": 4476,
      "åľĨåĳ¨è¿ĲåĬ¨": 4477,
      "äººåı£å¢ŀéķ¿æ¨¡å¼ı": 4478,
      "åĸľæ¬¢": 4479,
      "ç«ĭå®ªåĪ¶": 4480,
      "å³": 4481,
      "è¯¸": 4482,
      "éĢļè¿ĩä»¥ä¸Ĭ": 4483,
      "å®ŀè¯į": 4484,
      "äººç§°": 4485,
      "æĭĨ": 4486,
      "å¹¶èĥ½": 4487,
      "å¹¶ç»ĵåĲĪ": 4488,
      "åĬłçĥŃ": 4489,
      "é«ĺè´¨éĩı": 4490,
      "æĽ´å¤įæĿĤçļĦ": 4491,
      "éĿ¢ä¸Ĭ": 4492,
      "åĿĢ": 4493,
      "ä¿Ŀå®Ī": 4494,
      "è¡¨è¾¾æĬĢå·§": 4495,
      "åŁºç¡Ģè®¾æĸ½": 4496,
      "åıĬåħ¶å½±åĵį": 4497,
      "åİ»éĩį": 4498,
      "æĶ¾çĶµ": 4499,
      "é¦Ļ": 4500,
      "èµĦæºĲéħįç½®": 4501,
      "åĲĳéĩıç©ºéĹ´": 4502,
      "å®ŀéĻħéĹ®é¢ĺä¸Ń": 4503,
      "çĶŁæĢģç³»ç»ŁçļĦ": 4504,
      "å¼±éħ¸": 4505,
      "éĺŁåĪĹ": 4506,
      "æĬĽçī©": 4507,
      "æº¶è§£åº¦": 4508,
      "âĢ¦âĢ¦": 4509,
      "æľºæ¢°èĥ½å®ĪæģĴ": 4510,
      "çĭ¬çī¹çļĦ": 4511,
      "èĦļæľ¬": 4512,
      "neq": 4513,
      "è¯ŃéŁ³è¯ĨåĪ«": 4514,
      "åĮ¹éħį": 4515,
      "pe": 4516,
      "ä¹ı": 4517,
      "åĴĮåıĳå±ķ": 4518,
      "åĴĮæľįåĬ¡": 4519,
      "ä¸Ģç»Ħ": 4520,
      "è¡°": 4521,
      "åŃ¦æ®µ": 4522,
      "æµª": 4523,
      "çŃīåıĺæį¢": 4524,
      "å·´": 4525,
      "å½¢æĢģ": 4526,
      "ä¸ĭæĿ¥": 4527,
      "èĩªåıĺéĩı": 4528,
      "äº§ä¸ļ": 4529,
      "è¿Ľè¡ĮçļĦ": 4530,
      "Ġte": 4531,
      "æĸ¹åĲĳçĽ¸åıį": 4532,
      "ore": 4533,
      "åıĳçĶŁåıĺåĮĸ": 4534,
      "çļĦéĩįè¦ģå·¥åħ·": 4535,
      "é£İéĻ©": 4536,
      "éģĵè·¯": 4537,
      "Ġma": 4538,
      "åİĨåı²äºĭä»¶": 4539,
      "åĪĿåŃ¦èĢħ": 4540,
      "éĻĲäºİ": 4541,
      "çº§æķ°": 4542,
      "æ³¢çļĦ": 4543,
      "ä¼łéĢĴç»Ļ": 4544,
      "æ¤Ń": 4545,
      "æĦŁåºĶçĶµæµģ": 4546,
      "çĮľ": 4547,
      "éĢļè¿ĩåŃ¦ä¹łè¿ĻäºĽåĨħå®¹": 4548,
      "å°±åĥıæĺ¯": 4549,
      "èĢģå¸Ī": 4550,
      "åŃĹç¬¦ä¸²": 4551,
      "çĶµè´ŁæĢ§": 4552,
      "/(": 4553,
      "78": 4554,
      "80": 4555,
      "Al": 4556,
      "im": 4557,
      "ity": 4558,
      "Ġvery": 4559,
      "çļĦæĿ¡ä»¶": 4560,
      "æľĹ": 4561,
      "åŃ¤": 4562,
      "æłĪ": 4563,
      "æĹ¶åĪ»": 4564,
      "éĩıçļĦ": 4565,
      "ä½ľå®ļè¯Ń": 4566,
      "è¿Ļç±»": 4567,
      "éĩįå¤§": 4568,
      "å¹¶åĪĹ": 4569,
      "ä½¿åħ¶": 4570,
      "åħ¬å¼ıè®¡ç®Ĺ": 4571,
      "ä¼łè¾ĵ": 4572,
      "éĽĨæĪĲ": 4573,
      "ç«ĭæĦı": 4574,
      "æĸ°åıĳå±ķçĲĨå¿µ": 4575,
      "å¦Ĥä½ķåľ¨": 4576,
      "åīįåĲĳä¼łæĴŃ": 4577,
      "Ġåħ¸åŀĭä¾ĭé¢ĺä¸İ": 4578,
      "è¶Ĭå¤§": 4579,
      "çĶ¨æĪ·åıįé¦Ī": 4580,
      "åºķæķ°": 4581,
      "å²©": 4582,
      "éĿłè¿ĳ": 4583,
      "åľ¨æ°´ä¸Ń": 4584,
      "æ¼ĤçĻ½": 4585,
      "å¤¹è§Ĵ": 4586,
      "æ¿Ģæ´»åĩ½æķ°": 4587,
      "æ¤ŃåľĨ": 4588,
      "21": 4589,
      "rn": 4590,
      "âĨ": 4591,
      "Ġå¯¹": 4592,
      "Ġæ±Ĥ": 4593,
      "Ġåľ°çĲĥ": 4594,
      "çļĦç¤¾ä¼ļ": 4595,
      "çļĦå¤§å°ı": 4596,
      "åĴĮå¹³": 4597,
      "åľ¨ä¸Ģä¸ª": 4598,
      "ä¸Ģåħĥ": 4599,
      "æĹ§": 4600,
      "å®ļæľŁ": 4601,
      "æĿİ": 4602,
      "åĩĿ": 4603,
      "çŃĳ": 4604,
      "ä¼Ł": 4605,
      "è´´": 4606,
      "æľīæīĢ": 4607,
      "ä¸įä¼ļ": 4608,
      "åľ°çļĦ": 4609,
      "åĲĪå¹¶": 4610,
      "æ´ª": 4611,
      "è°¨": 4612,
      "å¤ļé¡¹å¼ı": 4613,
      "æĽ´åĩĨç¡®åľ°": 4614,
      "å®ĥåľ¨": 4615,
      "éĹ®çŃĶ": 4616,
      "ç´łåħ»": 4617,
      "ç»ĵæŀĦä¸İ": 4618,
      "è¯¯è§£": 4619,
      "éĥ¨éĹ¨": 4620,
      "éĢīäºĶ": 4621,
      "è§ĴåĬ¨éĩı": 4622,
      "èī²å½©": 4623,
      "æ¬ł": 4624,
      "æĿ¡ä»¶åı¥": 4625,
      "\\(\\": 4626,
      "åĩĨå¤ĩ": 4627,
      "å°±èĥ½": 4628,
      "æ°§åĮĸçī©": 4629,
      "èģĶç½ĳ": 4630,
      "é£İåĲĳ": 4631,
      "é¢Ħç®Ĺ": 4632,
      "ç¦»åŃĲæĸ¹ç¨ĭå¼ı": 4633,
      "Ġwith": 4634,
      "è¿Ļä¸Ģè¿ĩç¨ĭ": 4635,
      "å¼ºè°ĥåı¥åŀĭ": 4636,
      "æŁĵèī²ä½ĵåıĺå¼Ĥ": 4637,
      "åĵªç§į": 4638,
      "æĶ¹åıĺäºĨ": 4639,
      "éģµå®Ī": 4640,
      "è¿ĻéĩĮçļĦ": 4641,
      "ä¸ĥéĢīäºĶ": 4642,
      "æľĢå°ıåĢ¼": 4643,
      "çĲĨæĥ³æ°Ķä½ĵçĬ¶æĢģæĸ¹ç¨ĭ": 4644,
      "ç»Ŀå¯¹": 4645,
      "æ³ķæĭīç¬¬çĶµç£ģæĦŁåºĶå®ļå¾ĭ": 4646,
      "æ°ĽåĽ´": 4647,
      "Î©": 4648,
      "éŃ": 4649,
      "Ġra": 4650,
      "çļĦæµĵåº¦": 4651,
      "æķĽ": 4652,
      "åİĤ": 4653,
      "çĶµæ¢¯": 4654,
      "è¿ĽèĢĮ": 4655,
      "åı¯ä»¥æľīæķĪ": 4656,
      "åİŁçĤ¹": 4657,
      "æŃ£æŀģ": 4658,
      "å¼ºç¢±": 4659,
      "è®¡ç®Ĺæĸ¹æ³ķ": 4660,
      "è®°ä½ľ": 4661,
      "æ°´ä¸Ń": 4662,
      "è¿Ľè¡Įè®¡ç®Ĺ": 4663,
      "è¿ĲåĬ¨çĬ¶æĢģ": 4664,
      "Ġare": 4665,
      "éĵ¶": 4666,
      "Ġself": 4667,
      "Ġwent": 4668,
      "æĺ¾æĢ§": 4669,
      "åı¤å¸ĮèħĬ": 4670,
      "Ġde": 4671,
      "åĽŀå½Ĵ": 4672,
      "å¸¸è§ģéĶĻè¯¯åĴĮæ³¨æĦıäºĭé¡¹": 4673,
      "}\\)ãĢĤ": 4674,
      "åħĭæĢĿ": 4675,
      "é©¬åħĭæĢĿ": 4676,
      "ATPåĴĮ": 4677,
      "åĦ¿": 4678,
      "è½¬æĬĺçĤ¹": 4679,
      "åĵ²åŃ¦": 4680,
      "æ¬§å§Ĩå®ļå¾ĭ": 4681,
      "åªĴ": 4682,
      "llama": 4683,
      "æĬĽçī©çº¿": 4684,
      ".\"": 4685,
      "Ġj": 4686,
      "Ġå¤ļ": 4687,
      "åĪĨçĤ¹": 4688,
      "åĪĨåĮº": 4689,
      "è¾Ĩ": 4690,
      "çĶµæŀģ": 4691,
      "åıĳèĤ²": 4692,
      "åĬłæĿĥ": 4693,
      "åĪ°çļĦ": 4694,
      "åĪ°äºĨ": 4695,
      "æł¸å¿ĥè¦ģçĤ¹åĮħæĭ¬": 4696,
      "çĽ¸éģĩ": 4697,
      "ç»ıå¸¸": 4698,
      "åĵįåºĶ": 4699,
      "è¿ĻäºĽçŁ¥è¯Ĩ": 4700,
      "éĢīåĩº": 4701,
      "åĩıæ³ķ": 4702,
      "çĶ¨äºİæııè¿°": 4703,
      "äºĴåĬ¨": 4704,
      "å®ŀçİ°äºĨ": 4705,
      "åľ°çĲĥè¡¨éĿ¢": 4706,
      "ç¼ĸåı·": 4707,
      "æŁĵèī²ä½ĵæķ°çĽ®": 4708,
      "è§£çŃĶè¿ĩç¨ĭ": 4709,
      "æ¼ı": 4710,
      "ess": 4711,
      "ç¼ºä¹ı": 4712,
      "æĿ¿åĿĹ": 4713,
      "}$ãĢĤ": 4714,
      "æĬĺå°Ħè§Ĵ": 4715,
      "è·¨èĨľ": 4716,
      "irc": 4717,
      "åĶ¯ä¸Ģ": 4718,
      "é¡¶çĤ¹": 4719,
      "æ²ŁéĢļ": 4720,
      "æ¬łæĭŁåĲĪ": 4721,
      "RT": 4722,
      "ate": 4723,
      "day": 4724,
      "}(": 4725,
      "Î»": 4726,
      "Ġä¸ºä»Ģä¹Īéĩįè¦ģ": 4727,
      "ï¼ļ(": 4728,
      "åĴĮåĪĨæŀĲ": 4729,
      "åĴĮæĸĩåĮĸ": 4730,
      "è§£çłģ": 4731,
      "åĪĨåī²": 4732,
      "åŃ¦æľ¯": 4733,
      "éĢļä¿¡": 4734,
      "æĹ¶åĢĻ": 4735,
      "é¢ĺæĦı": 4736,
      "è¯įåĲĳéĩı": 4737,
      "è¡Įä½¿": 4738,
      "åıĬæ³¨æĦıäºĭé¡¹": 4739,
      "åĪ¶å¤ĩ": 4740,
      "æĦıè§ģ": 4741,
      "ç»ĵæŀĦæ¸ħæĻ°": 4742,
      "è¿Ľè¡ĮåĪĨæŀĲ": 4743,
      "åĽ¾ä¹¦": 4744,
      "å¦Ĥä½ķå½±åĵį": 4745,
      "æ°§åĮĸæĢ§": 4746,
      "è´Łæŀģ": 4747,
      "è§Ĩè§ī": 4748,
      "è®©åŃ¦çĶŁ": 4749,
      "è¯·æ±Ĥ": 4750,
      "å¾Īå¤ļ": 4751,
      "omega": 4752,
      "åĲĽä¸»ä¸ĵåĪ¶": 4753,
      "åĲĽä¸»ç«ĭå®ªåĪ¶": 4754,
      "ill": 4755,
      "çī©çĲĨåŃ¦ä¸Ń": 4756,
      "çĩĥçĥ§": 4757,
      "çĶ·æĢ§": 4758,
      "åħŃéĥ¨åĪ¶": 4759,
      "æ½ľ": 4760,
      "çĥŃåĬĽçİ¯æµģ": 4761,
      "èĩªçĶ±ç»ĦåĲĪå®ļå¾ĭ": 4762,
      "è·¨èĨľè¿Ĳè¾ĵ": 4763,
      "NN": 4764,
      "with": 4765,
      "Î²": 4766,
      "æħ§": 4767,
      "Ġè¯ĨåĪ«": 4768,
      "ĺç±³": 4769,
      "ä»į": 4770,
      "ä»ĺ": 4771,
      "åĴĮæĥħæĦŁ": 4772,
      "æµĨ": 4773,
      "è¯Ńåºı": 4774,
      "ä¸»æł¼": 4775,
      "äººæīį": 4776,
      "åı¯ä»¥å°Ĩ": 4777,
      "åİŁæĸĻ": 4778,
      "ä»£è°¢": 4779,
      "å¼ºéħ¸": 4780,
      "å¯¼ä½ĵ": 4781,
      "åĩ½æķ°åĽ¾åĥı": 4782,
      "èĢĮä¸į": 4783,
      "è¡¨è¾¾èĥ½åĬĽ": 4784,
      "ç»ıæµİåŃ¦": 4785,
      "åĪ©æ¶¦": 4786,
      "æīĢåıĹ": 4787,
      "èĢħçļĦ": 4788,
      "ç«ĭæ³ķ": 4789,
      "äº¤éĽĨ": 4790,
      "å¦Ĥä½ķæŀĦå»º": 4791,
      "ä¸»è¦ģçĶ±": 4792,
      "åİ»äºĨ": 4793,
      "æĶ¶æķĽ": 4794,
      "ä¼ĺåĬ¿": 4795,
      "è¯ģæ³ķ": 4796,
      "é¦Ĩ": 4797,
      "èĤ¥": 4798,
      "æĶ¿åºľçļĦ": 4799,
      "æĺ¾ç¤º": 4800,
      "è¿ĺåİŁæĢ§": 4801,
      "ç¥ŀç»ıè°ĥèĬĤ": 4802,
      "ä»İèĢĮæıĲé«ĺ": 4803,
      "åĽºä½ĵ": 4804,
      "èħ¾": 4805,
      "æİ§åĪ¶æµģç¨ĭ": 4806,
      "è®ºè¯ģæĸ¹æ³ķ": 4807,
      "æĻºæħ§": 4808,
      "æĸĩä»¶æĵįä½ľ": 4809,
      "åĪĨç¦»å®ļå¾ĭ": 4810,
      "pHåĢ¼": 4811,
      "éĢĶå¾Ħ": 4812,
      "ç¡®ç«ĭäºĨ": 4813,
      "åİŁåŃĲåºıæķ°": 4814,
      "æ°¢æ°§åĮĸéĴł": 4815,
      "æĲľç´¢": 4816,
      "ber": 4817,
      "num": 4818,
      "é½": 4819,
      "Ġ'": 4820,
      "ĠæĢİä¹Īåģļ": 4821,
      "çļĦçĶŁæ´»": 4822,
      "çļĦåĬŁèĥ½": 4823,
      "å®½": 4824,
      "ä¹Ŀ": 4825,
      "èĥ½ä¸İ": 4826,
      "ä¾ĭåı¥": 4827,
      "åİĺç±³": 4828,
      "éĩıä¸º": 4829,
      "åı¯å¾Ĺ": 4830,
      "Ġ100": 4831,
      "åĲĪå¤ĸåĬĽ": 4832,
      "è¯Ńä¹ī": 4833,
      "å¾¡": 4834,
      "å¹¶å°Ĩåħ¶": 4835,
      "ä¹ĭåīį": 4836,
      "åĢ¼åŁŁ": 4837,
      "åĩ½æķ°ä¸İ": 4838,
      "åŃ¦çĶŁæıĲä¾Ľ": 4839,
      "åħ³éĶ®ä¿¡æģ¯": 4840,
      "Ġth": 4841,
      "æİ¥è¿ĳ": 4842,
      "æĿĥçĽĬ": 4843,
      "åĪ¤æĸŃåħ¶": 4844,
      "å½¢å¼ıçļĦ": 4845,
      "åĬ¨è¯įçŁŃè¯Ń": 4846,
      "æĸĩåĮĸä¼łæī¿": 4847,
      "ä½įç½®ç¼ĸçłģ": 4848,
      "é¢ĺçĽ®è¦ģæ±Ĥ": 4849,
      "çİ°ä»£æ±īè¯Ń": 4850,
      "ç¢±åŁº": 4851,
      "å¾Ħæµģ": 4852,
      "ä¿®æĶ¹": 4853,
      "Ġhave": 4854,
      "åĩ½æķ°çļĦåĽ¾åĥı": 4855,
      "äº¤éĢļè¿Ĳè¾ĵ": 4856,
      "åĮĸåŃ¦åıįåºĶéĢŁçİĩ": 4857,
      "çº¢èī²": 4858,
      "å®Įæķ´çļĦ": 4859,
      "æº¶è§£å¹³è¡¡": 4860,
      "æĬĺå°Ħçİĩ": 4861,
      "ä¼łç»ŁæĸĩåĮĸ": 4862,
      "èĲ¥åħ»": 4863,
      "æĬķç¥¨æľºåĪ¶": 4864,
      "é¢Ħè®Ńç»ĥä»»åĬ¡": 4865,
      "é²ľ": 4866,
      "ts": 4867,
      "}ï¼Į": 4868,
      "æ©": 4869,
      "çļĦçĽ¸åħ³": 4870,
      "çļĦç²¾ç¥ŀ": 4871,
      "ãĢĤ\\": 4872,
      "è´µ": 4873,
      "æİĪ": 4874,
      "åĬĽä¸İ": 4875,
      "ä¹īåĬ¡": 4876,
      "ä¸»æĿĥ": 4877,
      "äººå·¥": 4878,
      "æĿ¥æııè¿°": 4879,
      "æĿ¥æıĲé«ĺ": 4880,
      "åĵĪ": 4881,
      "æĦıåĳ³": 4882,
      "åĬłå¿«": 4883,
      "ç§įæ¤į": 4884,
      "åĨħåĬĽä½ľçĶ¨": 4885,
      "çĽ¸ä¹ĺ": 4886,
      "æŃ£åĪĩ": 4887,
      "å®ĥåĮħæĭ¬": 4888,
      "æ±Ĥåĩº": 4889,
      "è®¾ç«ĭ": 4890,
      "æĺ¯æĮĩå°Ĩ": 4891,
      "æĭ¬åı·": 4892,
      "æİ¥åıĹ": 4893,
      "ç¼Ģ": 4894,
      "æŃ¤æĹ¶": 4895,
      "åħ·ä½ĵæĿ¥è¯´": 4896,
      "æĶ¿æ²»åĪ¶åº¦": 4897,
      "æĹłèī²": 4898,
      "èģĶéĤ¦": 4899,
      "å¤±è´¥": 4900,
      "å¼ºè°ĥäºĨ": 4901,
      "ä¹¦åĨĻ": 4902,
      "æ¸©åº¦åıĺåĮĸ": 4903,
      "æİ¢ç©¶": 4904,
      "æĺİç¡®çļĦ": 4905,
      "æĭŁäºº": 4906,
      "èĦ±": 4907,
      "åĮºåŁŁåı¯æĮģç»Ńåıĳå±ķ": 4908,
      "å®īæİĴ": 4909,
      "åĽłä¸ºå®ĥ": 4910,
      "é«ĺæķĪåľ°": 4911,
      "ä¾¿äºİ": 4912,
      "åĭĩ": 4913,
      "æł¡éªĮ": 4914,
      "æĽ´å¥½åľ°çĲĨè§£åĴĮæİĮæı¡": 4915,
      "è·¨æ¨¡æĢģ": 4916,
      "æłĩå¿ĹçĿĢä¸ŃåĽ½": 4917,
      "ç»§ç»Ń": 4918,
      "æĥ³è±¡ä¸Ģä¸ĭ": 4919,
      "å¦Īå¦Ī": 4920,
      "åħĥç´łåĳ¨æľŁå¾ĭ": 4921,
      "å®Ĺæ³ķåĪ¶": 4922,
      "å¾®æľįåĬ¡æŀ¶æŀĦ": 4923,
      "å¤ļæ¨¡åŀĭæł¡éªĮ": 4924,
      "çĪĨåıĳ": 4925,
      "æĦıåĳ³çĿĢ": 4926,
      "11": 4927,
      "He": 4928,
      "ful": 4929,
      "æķı": 4930,
      "æĺ¯çłĶç©¶": 4931,
      "è´¸": 4932,
      "æ³ķè§Ħ": 4933,
      "âĢĿï¼ī": 4934,
      "æĪĲæŀľ": 4935,
      "çŃīéĹ®é¢ĺ": 4936,
      "éĹ´æİ¥": 4937,
      "Ġ30": 4938,
      "è¿Ĳä½ľ": 4939,
      "åŃ¦ä¹łä¸Ń": 4940,
      "æĺİæľĪ": 4941,
      "æĪĳåĽ½": 4942,
      "åįķåħĥ": 4943,
      "å»ºçŃĳ": 4944,
      "å¸®åĬ©çĲĨè§£": 4945,
      "åı¯èĥ½æĺ¯": 4946,
      "åĽ½å®¶æĪĸ": 4947,
      "è¿ŀè¯į": 4948,
      "äºĴèģĶç½ĳ": 4949,
      "éĢĴåĩı": 4950,
      "æ¿Ģåıĳ": 4951,
      "èĮİ": 4952,
      "è¿ĩåİ»å¼ı": 4953,
      "å¼±çĶµè§£è´¨": 4954,
      "Ġif": 4955,
      "turn": 4956,
      "æ³ķåĽ½å¤§éĿ©åĳ½": 4957,
      "çĨŁç»ĥæİĮæı¡": 4958,
      "è¾¨æŀĲ": 4959,
      "æıŃç¤ºäºĨ": 4960,
      "åĪłéĻ¤": 4961,
      "AI": 4962,
      "âĦ": 4963,
      "Ġæ¨¡åŀĭ": 4964,
      "Ġé¢ĺçĽ®": 4965,
      "ä¸İä¼ĺåĮĸ": 4966,
      "ä½ĵè¿ĲåĬ¨": 4967,
      "æĸĩçĮ®": 4968,
      "æ±Ĥå¯¼": 4969,
      "åıĬåħ¶éĩįè¦ģæĢ§": 4970,
      "åĩıåİ»": 4971,
      "åĬŁçİĩ": 4972,
      "å·®ä¸º": 4973,
      "æ¸©å¸¦": 4974,
      "æĶ¿æ²»ä½ĵåĪ¶": 4975,
      "åīįåĲİ": 4976,
      "ç¦»åŃĲæµĵåº¦": 4977,
      "æ¦Ĥçİĩè®º": 4978,
      "æ··ä¹±": 4979,
      "çĶµåŃĲæķ°": 4980,
      "çĶŁäº§èĢħ": 4981,
      "å¯ĨåĪĩ": 4982,
      "åİŁåŃĲåįĬå¾Ħ": 4983,
      "æľįåĬ¡åĻ¨": 4984,
      "Ġhome": 4985,
      "æİ¨å¯¼åĩº": 4986,
      "é«ĺæķĪçļĦ": 4987,
      "å®Įåħ¨åĢĴè£ħ": 4988,
      "èµ°åĲĳ": 4989,
      "è¡Ģç³ĸ": 4990,
      "ç§įç¾¤æķ°éĩı": 4991,
      "åľ¨æĹ¥å¸¸çĶŁæ´»ä¸Ń": 4992,
      "çĽ´è§ĴåĿĲæłĩç³»": 4993,
      "çĵ¶": 4994,
      "AåĴĮB": 4995,
      "Ġéĩįè¦ģæ¦Ĥå¿µåĬłç²Ĺ": 4996,
      "OCR": 4997,
      "ST": 4998,
      "ci": 4999,
      "omp": 5000,
      "ple": 5001,
      "self": 5002,
      "ĠéĶĻè¯¯": 5003,
      "Ġæ¯ıä¸ª": 5004,
      "ļ(": 5005,
      "å®£": 5006,
      "å¼¯": 5007,
      "æĺ¯çĶŁçī©ä½ĵ": 5008,
      "è§£å¾Ĺ": 5009,
      "æĢ§åĪ«": 5010,
      "ä»¥æıĲé«ĺ": 5011,
      "ä¸įæŃ£ç¡®": 5012,
      "çĤ¹çĶµèį·": 5013,
      "åįĪ": 5014,
      "è¯įç±»": 5015,
      "åĢ¡": 5016,
      "åºĶçĶ¨èĥ½åĬĽ": 5017,
      "åĬłä¸Ĭ": 5018,
      "é¡¾": 5019,
      "æ²Ļ": 5020,
      "ç±į": 5021,
      "åıĺåĮĸçİĩ": 5022,
      "ç¤¾ä¼ļç¨³å®ļ": 5023,
      "æİ¨ç¿»": 5024,
      "ç»ıæµİæ´»åĬ¨": 5025,
      "åĽ¾æĸĩ": 5026,
      "ä¸īç§į": 5027,
      "æľĢä½³": 5028,
      "æİ¥æĶ¶": 5029,
      "åĪ¤åĪ«": 5030,
      "Ġby": 5031,
      "å¸¦æĿ¥çļĦ": 5032,
      "æĶ¾åľ¨": 5033,
      "Ġstud": 5034,
      "è§£åĨ³æĸ¹æ¡Ī": 5035,
      "å¤įæĿĤåº¦": 5036,
      "æģĴçŃīå¼ı": 5037,
      "å¾®åĪĨ": 5038,
      "æ°ĶåĢĻçī¹å¾ģ": 5039,
      "æ³¢éķ¿": 5040,
      "åı£è¯Ń": 5041,
      "çļĦæł¸å¿ĥåĨħå®¹": 5042,
      "æ³ķå¾ĭä½ĵç³»": 5043,
      "ä»¥ä¸ĬåĨħå®¹": 5044,
      "å¸¸è§ģéĶĻè¯¯ä¸İæ³¨æĦıäºĭé¡¹": 5045,
      "çº¿æĢ§è§ĦåĪĴ": 5046,
      "çī¹æ®ĬçļĦ": 5047,
      "ç¯®": 5048,
      "ä»ĭè¯įçŁŃè¯Ń": 5049,
      "Ġher": 5050,
      "ä¸ŃçļĦä¸Ģä¸ªéĩįè¦ģ": 5051,
      "ç®Ģè°Ĳè¿ĲåĬ¨": 5052,
      "èĥ°å²Ľ": 5053,
      "é©¬åħĭæĢĿä¸»ä¹ī": 5054,
      "è´¸æĺĵ": 5055,
      "24": 5056,
      "Bæµĭè¯ķ": 5057,
      "ĠåħŃ": 5058,
      "ŀæ¬¡": 5059,
      "çļĦåıįåºĶ": 5060,
      "çļĦä»·åĢ¼": 5061,
      "çļĦé¢Ĩå¯¼": 5062,
      "çļĦæľ¬è´¨": 5063,
      "ï¼ļ$": 5064,
      "çŃīå¤ļä¸ª": 5065,
      "è¾©": 5066,
      "ä¼ļäº§çĶŁ": 5067,
      "åİŁåı¥": 5068,
      "æ°Ķè±¡": 5069,
      "åĲĳäºİ": 5070,
      "æ¸Ĺ": 5071,
      "å¼ºåĮĸ": 5072,
      "æľºä¼ļ": 5073,
      "æ°ĳä¼Ĺ": 5074,
      "æĪĳä»¬å°Ĩ": 5075,
      "æķ°æį®æ¸ħæ´Ĺ": 5076,
      "åħ¨åĽ½": 5077,
      "æĢ»æĺ¯": 5078,
      "åĩıå¼±": 5079,
      "éĢļå¸¸æĺ¯": 5080,
      "èĤī": 5081,
      "æĸĩç«łåĨħå®¹": 5082,
      "ĠCl": 5083,
      "åĳ¨æľŁè¡¨": 5084,
      "all": 5085,
      "Ġå¸¸è§ģéĶĻè¯¯åĴĮæ³¨æĦıäºĭé¡¹": 5086,
      "è¯Ńæ³ķç»ĵæŀĦ": 5087,
      "æīĵå¼Ģ": 5088,
      "æĸĩè¨ĢèĻļè¯į": 5089,
      "åŃ¦çĶŁåı¯ä»¥æĽ´å¥½åľ°çĲĨè§£": 5090,
      "ä¸»åĬ¨è¿Ĳè¾ĵ": 5091,
      "åĬ¨çĶ»èĦļæľ¬": 5092,
      "æĹ©ä¸Ĭ": 5093,
      "æ¥ŀæ¬¡": 5094,
      "å¼ķèµ·çļĦ": 5095,
      "åľ¨å®ŀéĻħåºĶçĶ¨ä¸Ń": 5096,
      "å¥ĩåģ¶æĢ§": 5097,
      "âĨĳ": 5098,
      "ATPåĴĮNADPH": 5099,
      "é½Ĳ": 5100,
      "âĦĥ": 5101,
      "%ï¼Į": 5102,
      "\\,": 5103,
      "ĠJ": 5104,
      "ĠåŃ¦çĶŁ": 5105,
      "Ġèĭ¥": 5106,
      "ä¸½": 5107,
      "ä¹ĥ": 5108,
      "ä¸ŃæıĲåıĸ": 5109,
      "åľ¨è®¡ç®Ĺ": 5110,
      "æľīåºı": 5111,
      "æĿ¥åĪ¤æĸŃ": 5112,
      "åĲĳä¸Ĭ": 5113,
      "åĪ°è¾¾": 5114,
      "éħ®": 5115,
      "å°ĨæĿ¥": 5116,
      "å¤ļæ¨¡æĢģ": 5117,
      "å¼ºå¼±": 5118,
      "ç±»ä¼¼": 5119,
      "æ°´æŀľ": 5120,
      "æľºæŀĦ": 5121,
      "è°ĥçĶ¨": 5122,
      "ind": 5123,
      "æ·±åĮĸ": 5124,
      "åĩıå°ı": 5125,
      "å¼ķè¨Ģ": 5126,
      "æŀģæĢ§": 5127,
      "åıĳçĶŁäºĨ": 5128,
      "åıĹçĥŃ": 5129,
      "éģĵå¾·": 5130,
      "ä¸įä»ħæĺ¯": 5131,
      "æ¦Ĥçİĩç»Łè®¡": 5132,
      "åĲĪçĲĨåĪĨéħį": 5133,
      "è¡¨çİ°ä¸º": 5134,
      "æ£®": 5135,
      "ä»¥ä¸ĭåĩł": 5136,
      "å®ŀè·µæĺ¯": 5137,
      "åıĺéĩıä¸İ": 5138,
      "æĲº": 5139,
      "èĭ¥å¹²": 5140,
      "å¸¸è§ģéĶĻè¯¯æıĲç¤º": 5141,
      "çĶŁçī©çļĦ": 5142,
      "æ£Ģæµĭ": 5143,
      "åºıåĪĹæ¨¡åŀĭ": 5144,
      "è¯¦è§£": 5145,
      "æĺ¾èĳĹæıĲé«ĺ": 5146,
      "å¿½è§ĨäºĨ": 5147,
      "Ġreturn": 5148,
      "è¯¦ç»Ĩè®²è§£": 5149,
      "éĻĨåľ°": 5150,
      "è¯¾ç¨ĭ": 5151,
      "æ¨¡æĭŁéĹ®çŃĶ": 5152,
      "ç¼ĸçłģåĻ¨": 5153,
      "çĪ¶æ¯į": 5154,
      "èıĮ": 5155,
      "æ´Ľä¼¦åħ¹åĬĽ": 5156,
      "è¾ħåĬ©": 5157,
      "ä¸īçľģåħŃéĥ¨åĪ¶": 5158,
      "æĭ¥æľī": 5159,
      "HT": 5160,
      "Ollama": 5161,
      "Â±": 5162,
      "Ġç»Ļåĩº": 5163,
      "ĠæĶ¹éĿ©å¼ĢæĶ¾": 5164,
      "çļĦåŃĺåľ¨": 5165,
      "çļĦæľīæķĪ": 5166,
      "çļĦè§ĤçĤ¹": 5167,
      "ä¸Ńä½¿çĶ¨": 5168,
      "åĪĨæĶ¯": 5169,
      "æİ·": 5170,
      "âĢĿï¼īãĢĤ": 5171,
      "çĤ¹ä¸İ": 5172,
      "åı¯éĿł": 5173,
      "æĪĸçŁŃè¯Ń": 5174,
      "æĦ¿": 5175,
      "è¿Ļå¯¹äºİ": 5176,
      "æĸĩéĺħè¯»": 5177,
      "éĻ¢": 5178,
      "çĲĨè§£å¹¶": 5179,
      "ä¸ŃçļĦåħĥç´ł": 5180,
      "åĩºæĿ¥": 5181,
      "æ¨ª": 5182,
      "åħ¥éĹ¨": 5183,
      "èĢĮåľ¨": 5184,
      "å½±åĵįåĽłç´ł": 5185,
      "åĨ³äºİ": 5186,
      "ä¸īå¤§": 5187,
      "åĨħå®¹çĶŁæĪĲ": 5188,
      "åĮĸåŃ¦ä¸Ń": 5189,
      "éĿŀçĽĳçĿ£åŃ¦ä¹ł": 5190,
      "æ¯ıä¸Ģ": 5191,
      "Ġbi": 5192,
      "æŀģå°ı": 5193,
      "åıĸåĨ³äºİ": 5194,
      "çŁ¥è¯ĨçĤ¹è®²è§£": 5195,
      "è§Ĩä¸º": 5196,
      "å®ŀéªĮå®¤": 5197,
      "æ°Ķä½ĵçļĦ": 5198,
      "ä¸»è¯ŃåĴĮ": 5199,
      "æ£Ĵ": 5200,
      "and": 5201,
      "åĮĸåŃ¦åıįåºĶä¸Ń": 5202,
      "äººç±»æ´»åĬ¨": 5203,
      "æĤ¨": 5204,
      "åıĹåĪ°çļĦ": 5205,
      "éĹŃçİ¯": 5206,
      "ä¸ĵä¸ļ": 5207,
      "èĴ¸èħ¾": 5208,
      "æľ¬æ¨¡åĿĹæĹ¨åľ¨ä¸ºåŃ¦çĶŁæıĲä¾Ľ": 5209,
      "åĶĲæľĿ": 5210,
      "å¤§è¯Ńè¨Ģæ¨¡åŀĭæĬĢæľ¯": 5211,
      "Ġpark": 5212,
      "çī¹èī²ç¤¾ä¼ļä¸»ä¹ī": 5213,
      "åıĺéĩıä¸İæķ°æį®ç±»åŀĭ": 5214,
      "={": 5215,
      "rho": 5216,
      "xè½´": 5217,
      "yè½´": 5218,
      "ÏĨ": 5219,
      "Ġz": 5220,
      "Ġæ··æ·Ĩ": 5221,
      "**ï¼Į": 5222,
      "äºĪ": 5223,
      "âĢĺ": 5224,
      "åľ¨ä¸Ģå®ļ": 5225,
      "ç§Ģ": 5226,
      "ä¸İåıĳå±ķ": 5227,
      "ä»¥ç¡®ä¿Ŀ": 5228,
      "æĸ¹ä¾¿": 5229,
      "æĪĸä¸į": 5230,
      "è¡¨éĿ¢çļĦ": 5231,
      "å·ŀ": 5232,
      "äººåĳĺ": 5233,
      "æĬĳ": 5234,
      "ä¼ļå¯¼èĩ´": 5235,
      "å¤§è§Ħæ¨¡": 5236,
      "åĩºçĶŁ": 5237,
      "éĩįè¦ģæĦıä¹ī": 5238,
      "å¼ºçļĦ": 5239,
      "è¿Ľè¡ĮæĹ¶": 5240,
      "æİ¨è¡Į": 5241,
      "æķ°æį®å¤ĦçĲĨ": 5242,
      "Ġam": 5243,
      "éĢŁåº¦åĴĮ": 5244,
      "æľŁéĹ´": 5245,
      "ä½łåľ¨": 5246,
      "ment": 5247,
      "æĹłéĻĲ": 5248,
      "èĥ½éĩıè½¬æį¢": 5249,
      "èĤ¡": 5250,
      "éĩĮçļĦ": 5251,
      "åĬŁèĥ½åĪĨåĮº": 5252,
      "åĵªä¸ª": 5253,
      "çĭ¬ç«ĭä¸»æł¼": 5254,
      "è£ħç½®": 5255,
      "é¸Ł": 5256,
      "åįĹåįĬçĲĥ": 5257,
      "çĶŁæ´»ä¸ŃçļĦåºĶçĶ¨": 5258,
      "å¤ªéĺ³è¾Ĳå°Ħ": 5259,
      "æĺ¥å¤©": 5260,
      "çĪ±åĽ½": 5261,
      "æ²īæ·Ģæº¶è§£å¹³è¡¡": 5262,
      "åĲ¯èĴĻ": 5263,
      "æĻ®éģį": 5264,
      "ç¼ĵåŃĺçŃĸçķ¥": 5265,
      "æľ¬é¢ĺä¸»è¦ģèĢĥæŁ¥": 5266,
      "åĦĴ": 5267,
      "åłĨ": 5268,
      "åĽ¾ä¹¦é¦Ĩ": 5269,
      "æ¥ŀæ¬¡å®ļå¾ĭ": 5270,
      "æ£®æŀĹ": 5271,
      "ool": 5272,
      "ĠæĶ¿æ²»": 5273,
      "çļĦéĥ¨åĪĨ": 5274,
      "è¯ī": 5275,
      "åĪĨæĪĲ": 5276,
      "æ³°": 5277,
      "ä¸ºä¾ĭ": 5278,
      "ä¸ºæŃ£": 5279,
      "ä¸ºçľŁ": 5280,
      "èĥ½å¸®åĬ©": 5281,
      "åĬ¨åĬĽ": 5282,
      "ç§ģ": 5283,
      "ä»¥ä¸º": 5284,
      "âĢĿï¼ĮâĢľ": 5285,
      "åį´": 5286,
      "éĢļè¿ĩæľ¬æ¨¡åĿĹ": 5287,
      "éĢļè¿ĩè§Ĥå¯Ł": 5288,
      "Ġ19": 5289,
      "è¡¨éĿ¢ç§¯": 5290,
      "æī®": 5291,
      "ä¼ļå½±åĵį": 5292,
      "åĪĻæĺ¯æĮĩ": 5293,
      "æĽ´åħ·": 5294,
      "æµģåĲĳ": 5295,
      "éĹ®é¢ĺçļĦ": 5296,
      "æłĩçŃ¾": 5297,
      "è¡¨è¾¾äºĨ": 5298,
      "ç»ıæµİåĪ¶åº¦": 5299,
      "ç»ıæµİåĴĮç¤¾ä¼ļ": 5300,
      "æİ¥è§¦": 5301,
      "ä½łä¼ļ": 5302,
      "åĮĸåŃ¦å¼ı": 5303,
      "è¢«æ°§åĮĸ": 5304,
      "èĩªçĦ¶çİ°è±¡": 5305,
      "ç¦»åŃĲåħ±åŃĺ": 5306,
      "çĽ´æİ¥å½±åĵį": 5307,
      "å§ĭç»Ī": 5308,
      "åįķä½įè½¬æį¢": 5309,
      "Ġne": 5310,
      "çļĦæł¸å¿ĥåľ¨äºİ": 5311,
      "ang": 5312,
      "æ¸ħæĻ°åľ°": 5313,
      "æĽ´åĬłçĶŁåĬ¨": 5314,
      "ä¸¥è°¨": 5315,
      "å·¦åı³": 5316,
      "è§£æĶ¾æĪĺäºī": 5317,
      "çĶŁæĢģç³»ç»Łä¸Ń": 5318,
      "å°ģå»ºç¤¾ä¼ļ": 5319,
      "ç©¿è¿ĩ": 5320,
      "æķ°æį®åºĵè®¾è®¡": 5321,
      "æ°®æ°Ķ": 5322,
      "æĮĩä»¤å¾®è°ĥ": 5323,
      "èĥ°å²Ľç´ł": 5324,
      "éĢļè¿ĩæľ¬æ¨¡åĿĹçļĦåŃ¦ä¹ł": 5325,
      "75": 5326,
      "=(": 5327,
      "Zn": 5328,
      "^+": 5329,
      "circ": 5330,
      "iz": 5331,
      "work": 5332,
      "¢å¤į": 5333,
      "âĳ": 5334,
      "Ġçİ°åľ¨": 5335,
      "Ġ____": 5336,
      "å®ĩ": 5337,
      "ä½Ľ": 5338,
      "åĲĹ": 5339,
      "æĺ¯ç»Ĩèĥŀ": 5340,
      "åľ¨æĶ¿æ²»": 5341,
      "èĥĢ": 5342,
      "æĪĸå¡«ç©ºé¢ĺ": 5343,
      "æĪĲè¯Ń": 5344,
      "æĪĲå°±": 5345,
      "åľ°åĿĢ": 5346,
      "ä½ľçī©": 5347,
      "æ¯Ľ": 5348,
      "ï¼ĽâĢľ": 5349,
      "åıįæ¯Ķ": 5350,
      "åĩºçļĦ": 5351,
      "åĨħåľ¨": 5352,
      "å®ļä¹īä¸º": 5353,
      "å¯¼çĶµ": 5354,
      "åıįåºĶä¸Ń": 5355,
      "è®¾å®ļ": 5356,
      "èĢĮä¸įæĺ¯": 5357,
      "here": 5358,
      "æģ¢å¤į": 5359,
      "ä¾¯": 5360,
      "éĹ®é¢ĺä¸Ń": 5361,
      "æĦŁè§ī": 5362,
      "éķ¶": 5363,
      "çĥ¯": 5364,
      "å®Įå½¢": 5365,
      "åħīèĥ½": 5366,
      "çĶŁæĪĲçļĦ": 5367,
      "æĪĺçķ¥": 5368,
      "æĺ¯åĲ¦æľī": 5369,
      "æĶ¯ä»ĺ": 5370,
      "æľªæĿ¥çļĦ": 5371,
      "éģ¿åħįæ··æ·Ĩ": 5372,
      "éĺ¶çº§": 5373,
      "ä½İåİĭ": 5374,
      "é©¶": 5375,
      "ĊĠĠĠĠĠĠĠĠĠĠĠ": 5376,
      "éĩįåĬĽåĬłéĢŁåº¦": 5377,
      "æĲŃå»º": 5378,
      "è¶ħè¿ĩ": 5379,
      "ä¾¿åĪ©": 5380,
      "æŁĲä¸ĢçĤ¹": 5381,
      "å¿ĥçĲĨæ´»åĬ¨": 5382,
      "é«ĺä¸ŃçĶŁåı¯ä»¥": 5383,
      "æ¶µçĽĸäºĨ": 5384,
      "LumiLearnç³»ç»Łå¼Ģåıĳä¸Ń": 5385,
      "å²©çŁ³": 5386,
      "æ¸ĹéĢı": 5387,
      "æĲºå¸¦": 5388,
      "éĹŃçİ¯è®Ńç»ĥ": 5389,
      ")\\)ï¼Į": 5390,
      "Te": 5391,
      "av": 5392,
      "uc": 5393,
      "ĠçĶ¨": 5394,
      "æķĳ": 5395,
      "æĺ¯ä¸Ģ": 5396,
      "ä½ĵçİ°åľ¨": 5397,
      "æĹ¶è¦ģ": 5398,
      "ä¸įå¤Ł": 5399,
      "åıĺå½¢": 5400,
      "ä¸»ä½ĵ": 5401,
      "åıįå¤į": 5402,
      "å¤§å®¶": 5403,
      "æŁ±": 5404,
      "å®ļä¹īä¸İåİŁçĲĨ": 5405,
      "åĲİéĿ¢": 5406,
      "æłĩçĤ¹": 5407,
      "æķ°æį®éĽĨ": 5408,
      "å®ŀéĻħæ¡Īä¾ĭ": 5409,
      "æİ¥çĿĢ": 5410,
      "æ¯ıä¸Ģé¡¹": 5411,
      "åŃĹæ¯į": 5412,
      "åıĸä»£": 5413,
      "ä¾Ľç»Ļ": 5414,
      "çģŃ": 5415,
      "å®ļçĲĨæİ¨å¯¼": 5416,
      "tial": 5417,
      "èµ·çĤ¹": 5418,
      "æģĴçŃīåıĺæį¢": 5419,
      "Ġpro": 5420,
      "æ°ĶåĢĻåıĺåĮĸ": 5421,
      "è¿ĺåİŁåīĤ": 5422,
      "éĵģè·¯": 5423,
      "æĸĩæľ¬é¢Ħå¤ĦçĲĨ": 5424,
      "ç¢³éħ¸": 5425,
      "é¸£": 5426,
      "ç¾¤ä½ĵ": 5427,
      "æķĻåŃ¦è®²è§£": 5428,
      "åĬ¨éĩıå®ĪæģĴå®ļå¾ĭ": 5429,
      "èĢĥè¯ķä¸Ń": 5430,
      "æ¹ĸ": 5431,
      "ä¸¥æł¼": 5432,
      "æľ¬æ¨¡åĿĹå°Ĩæ·±åħ¥æİ¢è®¨": 5433,
      "åĮĸåŃ¦éĶ®ç±»åŀĭ": 5434,
      "æľ¬æ¨¡åĿĹæĹ¨åľ¨ä¸ºåĪĿåŃ¦èĢħ": 5435,
      "åı¸æ³ķ": 5436,
      "appy": 5437,
      "åı«åģļ": 5438,
      "çĪ¬èĻ«æĬĢæľ¯": 5439,
      "åĽ¾æĸĩè½¬æį¢": 5440,
      "æĬĳåĪ¶": 5441,
      "éķ¶åµĮ": 5442,
      "AC": 5443,
      "book": 5444,
      "éĨĴ": 5445,
      "ĠæŃ£ç¡®": 5446,
      "çļĦæĸĩåĮĸ": 5447,
      "çļĦåİŁåĽł": 5448,
      "çļĦåĲ«ä¹ī": 5449,
      "åºĬ": 5450,
      "åĴĮäººæ°ĳ": 5451,
      "ä¸İç¤¾ä¼ļ": 5452,
      "ä¸İåľ°è²Į": 5453,
      "æİī": 5454,
      "åħ¬è·¯": 5455,
      "æľ¬éĥ¨åĪĨ": 5456,
      "æĿ¥ç¡®å®ļ": 5457,
      "å¹¶éĽĨ": 5458,
      "ä¸ŃçļĦéĩįè¦ģæĢ§": 5459,
      "éĺĲ": 5460,
      "æĽ´å®¹æĺĵ": 5461,
      "æ°´èµĦæºĲ": 5462,
      "ä½¿çĶ¨äºĨ": 5463,
      "åīĬ": 5464,
      "æķ°æį®ç»ĵæŀĦ": 5465,
      "Ġan": 5466,
      "æ¬£": 5467,
      "äº¤æĽ¿": 5468,
      "ĠéĢļè¿ĩåŃ¦ä¹ł": 5469,
      "ä¾ĽéľĢ": 5470,
      "åĳ½è¿Ĳ": 5471,
      "çİ¯å¢ĥçļĦ": 5472,
      "çİ¯å¢ĥä¸Ń": 5473,
      "åį³ä¸º": 5474,
      "åĩĨç¡®çİĩ": 5475,
      "æŁ¥è¯¢": 5476,
      "ä¹¦ç±į": 5477,
      "æ¢¦": 5478,
      "æ°ĶåĢĻç±»åŀĭ": 5479,
      "ough": 5480,
      "æļ´": 5481,
      "Ġå®ļä¹īä¸İ": 5482,
      "é¸¡": 5483,
      "åĬłéĢŁè®¡ç®Ĺ": 5484,
      "æĤ£": 5485,
      "èĮĥåĽ´åĨħ": 5486,
      "æİĴåĪĹç»ĦåĲĪ": 5487,
      "æ¼Ķåıĺ": 5488,
      "Ġread": 5489,
      "ĠéĢļè¿ĩä»¥ä¸Ĭè®²è§£": 5490,
      "æĥ¯æĢ§": 5491,
      "phi": 5492,
      "å¯¹æķ°åĩ½æķ°": 5493,
      "ä¼´éļı": 5494,
      "æĥħèĬĤåıĳå±ķ": 5495,
      "æŀģåĢ¼çĤ¹": 5496,
      "æĶ¶åħ¥åĪĨéħįæĸ¹å¼ı": 5497,
      "hile": 5498,
      "çĽĲç±»æ°´è§£": 5499,
      "1787": 5500,
      "æŃ»äº¡çİĩ": 5501,
      "è¯¸ä¾¯": 5502,
      "ä¼Łå¤§": 5503,
      "è§£çłģåĻ¨": 5504,
      "è¯įç±»æ´»çĶ¨": 5505,
      "çĭ¬ç«ĭä¸»æł¼ç»ĵæŀĦ": 5506,
      "85": 5507,
      "cel": 5508,
      "sub": 5509,
      "æĩ": 5510,
      "Ġç»Ĩèĥŀ": 5511,
      "çļĦæĬĢæľ¯": 5512,
      "çļĦä¾ĭåŃĲ": 5513,
      "çļĦåľ°æĸ¹": 5514,
      "åĴĮæĦıä¹ī": 5515,
      "æĹħ": 5516,
      "âĢĿï¼Ł**": 5517,
      "æĪĲåıįæ¯Ķ": 5518,
      "å¯¹ç«ĭ": 5519,
      "åħ¶æ¬¡": 5520,
      "åħ¶æł¸å¿ĥæ¦Ĥå¿µåĮħæĭ¬": 5521,
      "ä¸»æĹı": 5522,
      "æĭ¼": 5523,
      "åĪĻåı¯èĥ½": 5524,
      "ä½¿åı¥åŃĲ": 5525,
      "åĨħåŃĺ": 5526,
      "å¤ļæķ°": 5527,
      "æĽ´æĸ°": 5528,
      "åĩ½æķ°f": 5529,
      "è°ĥæŁ¥": 5530,
      "åħ³éĶ®çĤ¹": 5531,
      "Ġas": 5532,
      "å»ºæ¨¡": 5533,
      "éĽĨä½ĵ": 5534,
      "çĬ¶èħº": 5535,
      "æĢ»åĴĮ": 5536,
      "ç½®æį¢": 5537,
      "æ¸©å·®": 5538,
      "è¢«è¿ĺåİŁ": 5539,
      "æº¶äºİ": 5540,
      "ä¼ĺç§Ģ": 5541,
      "ort": 5542,
      "é¢ĺçĽ®ä¸Ń": 5543,
      "è¯Ĺåı¥": 5544,
      "è¾ĥä¸º": 5545,
      "Ġdx": 5546,
      "è¶³å¤Ł": 5547,
      "ç¨³å®ļçļĦ": 5548,
      "Ġnum": 5549,
      "ç¥ŀç»ıç³»ç»Ł": 5550,
      "èĩªçĶ±èĲ½": 5551,
      "åħħçĶµ": 5552,
      "äº¤éĢļç½ĳç»ľ": 5553,
      "å¤ªéĺ³èĥ½": 5554,
      "æĺ¯ä¸ŃåĽ½åı¤ä»£": 5555,
      "ä»ĸä»¬çļĦ": 5556,
      "èŀįåħ¥": 5557,
      "çĶ²çĬ¶èħº": 5558,
      "èĲ¥éĢł": 5559,
      "å¥³æĢ§": 5560,
      "åĲįè¯įæĪĸä»£è¯į": 5561,
      "éĶĢåĶ®": 5562,
      "åĽłæŀľåħ³ç³»": 5563,
      "Ġç®Ģåįķç¤ºä¾ĭè¯´æĺİ": 5564,
      "ç¼ĸåı·åĪĹè¡¨": 5565,
      "å¯ĨåĪĩçĽ¸åħ³": 5566,
      "æŀģå°ıåĢ¼": 5567,
      "æī®æ¼Ķ": 5568,
      ".ï¼Ī": 5569,
      "are": 5570,
      "age": 5571,
      "ĥåľ": 5572,
      "çļĦåĲĮæĹ¶": 5573,
      "çļĦæĿĥåĪ©": 5574,
      "åĬŀ": 5575,
      "åĲŀ": 5576,
      "ä¹ħ": 5577,
      "æĸ¥": 5578,
      "çĶ¨éĢĶ": 5579,
      "èĥ½åĲ¦": 5580,
      "çĽĺ": 5581,
      "èĢ³": 5582,
      "åį·": 5583,
      "åŀĥåľ": 5584,
      "å·Ŀ": 5585,
      "éĺ¿": 5586,
      "å¤ļæĸ¹éĿ¢": 5587,
      "è®°å¿ĥ": 5588,
      "æ¯ĶèµĽ": 5589,
      "è¡¨è¾¾æķĪæŀľ": 5590,
      "æ¨¡åŀĭèĥ½å¤Ł": 5591,
      "è¡¨ç¤ºåĬ¨ä½ľ": 5592,
      "æīĢåģļçļĦåĬŁ": 5593,
      "å®ŀéĻħåºĶçĶ¨åľºæĻ¯": 5594,
      "æĿĥå¨ģ": 5595,
      "åħ±æľī": 5596,
      "æ¸©æļĸ": 5597,
      "ç¬¬ä¸Ģä¸ª": 5598,
      "éĢļå¸¸æ¶īåıĬ": 5599,
      "Ġâĩ": 5600,
      "ãĢĤâĢĿï¼Ī": 5601,
      "å¹³è¡¡çĬ¶æĢģ": 5602,
      "Ġmy": 5603,
      "è¿ĲçĶ¨èĥ½åĬĽ": 5604,
      "éĩĳå±ŀæ´»åĬ¨": 5605,
      "åŁºåĽłåĪĨç¦»å®ļå¾ĭ": 5606,
      "æº¶æ¶²çļĦ": 5607,
      "æķ°åĪĹçļĦ": 5608,
      "çļĦæł¸å¿ĥæĢĿæĥ³": 5609,
      "çļĦä¸Ģç³»åĪĹ": 5610,
      "åľĨå¿ĥ": 5611,
      "æĮģç»ŃåŃ¦ä¹ł": 5612,
      "åŁİå¸ĤåĮĸ": 5613,
      "å±±èĦī": 5614,
      "è½¬åĮĸä¸ºåĮĸåŃ¦èĥ½": 5615,
      "ä¸įçŃīå¼ıçļĦ": 5616,
      "åĮĸåĲĪä»·": 5617,
      "æľĢå¤§åĮĸ": 5618,
      "geq": 5619,
      "æĢ§æł¼çī¹çĤ¹": 5620,
      "å®¢è§Ĥ": 5621,
      "å®¢æĪ·": 5622,
      "ç¡¬ä»¶": 5623,
      "å¸¦çĶµç²ĴåŃĲåľ¨ç£ģåľº": 5624,
      "ç£·èĦĤ": 5625,
      "åŀĥåľ¾": 5626,
      "'s": 5627,
      "13": 5628,
      "ked": 5629,
      "who": 5630,
      "which": 5631,
      "¨èĥĢ": 5632,
      "Ġå·¥ä¸ļ": 5633,
      "Ġç»¼åĲĪ": 5634,
      "Ġç®ĢçŃĶé¢ĺ": 5635,
      "çļĦåıĳçĶŁ": 5636,
      "çļĦéľĢæ±Ĥ": 5637,
      "åħĶ": 5638,
      "æĢ¥": 5639,
      "åĪĨäº«": 5640,
      "ä¸ºä¸Ńå¿ĥ": 5641,
      "å®ļä½į": 5642,
      "åĩ¸": 5643,
      "åĬ¨æľº": 5644,
      "é¢ĺåŀĭ": 5645,
      "æľīè¶£": 5646,
      "Ġ16": 5647,
      "å¯¹ä¸ŃåĽ½": 5648,
      "è¿Ļåľº": 5649,
      "åħ¬åħĥ": 5650,
      "åħ¬åı¸": 5651,
      "æ¦Ĥæĭ¬": 5652,
      "çŁ¿": 5653,
      "å½¢å¦Ĥ": 5654,
      "ç§įç±»": 5655,
      "åĳ¢": 5656,
      "è·Ł": 5657,
      "è®¡ç®ĹéĶĻè¯¯": 5658,
      "æ¯ĶåĢ¼": 5659,
      "inf": 5660,
      "ç¤¾ä¼ļè¿ĽæŃ¥": 5661,
      "æĪĳä»¬éľĢè¦ģ": 5662,
      "ä¹ĭéĹ´åŃĺåľ¨": 5663,
      "ç¼ĺ": 5664,
      "åħ¨æĸĩ": 5665,
      "äº¤æĺĵ": 5666,
      "å¦Ĥä½ķå°Ĩ": 5667,
      "æĸ¹åĲĳåĴĮ": 5668,
      "ä»ĸçļĦ": 5669,
      "Ġcon": 5670,
      "åİĨåı²èĥĮæĻ¯": 5671,
      "æĶ¿åºľéĢļè¿ĩ": 5672,
      "çļĦåŁºç¡Ģä¸Ĭ": 5673,
      "è¿Ļç§įæĸ¹æ³ķ": 5674,
      "è¿ĳä¼¼": 5675,
      "å¯Ĩçłģ": 5676,
      "ä¹ĺéĻ¤": 5677,
      "èĨ¨èĥĢ": 5678,
      "å®īåŁ¹": 5679,
      "æ¶Īè´¹å¿ĥçĲĨ": 5680,
      "å¸®åĬ©æĪĳä»¬çĲĨè§£": 5681,
      "äººç±»ç¤¾ä¼ļ": 5682,
      "åĿĲæłĩè¡¨ç¤º": 5683,
      "å±Ģéĥ¨": 5684,
      "å¤©æ°ĶåıĺåĮĸ": 5685,
      "é£Łåĵģ": 5686,
      "åŃ¦çĶŁèĥ½å¤ŁæİĮæı¡": 5687,
      "DNAåĪĨåŃĲ": 5688,
      "éĩįåĬĽä½ľçĶ¨": 5689,
      "âĪŀ": 5690,
      "å®¹æĺĵæ··æ·Ĩ": 5691,
      "}$ï¼Į": 5692,
      "åľ°å½¢çī¹å¾ģ": 5693,
      "çģ«å±±": 5694,
      "ueue": 5695,
      "å¯¹ç§°æĢ§": 5696,
      "åı¤è¯Ĺéī´èµı": 5697,
      "éĿĴå¹´": 5698,
      "è®ºè¿°é¢ĺ": 5699,
      "ä¸¾ä¾ĭè¯´æĺİ": 5700,
      "Transformeræŀ¶æŀĦ": 5701,
      "åį±æľº": 5702,
      "å³°": 5703,
      "åªĴä½ĵ": 5704,
      "äººå·¥æĻºèĥ½": 5705,
      "æľ¬æ¨¡åĿĹæĹ¨åľ¨ä¸ºåĪĿåŃ¦èĢħæıĲä¾Ľ": 5706,
      "æ¬£èµı": 5707,
      "500": 5708,
      "name": 5709,
      "ps": 5710,
      "ĠæĸĩåĮĸ": 5711,
      "Ġå¸ĮæľĽ": 5712,
      "ĠéĿŀè°ĵè¯ŃåĬ¨è¯į": 5713,
      "Ġå®ļè¯Ńä»İåı¥": 5714,
      "ĠÎĶ": 5715,
      "çļĦçī©è´¨": 5716,
      "çļĦåĲĦç§į": 5717,
      "äº¦": 5718,
      "ä»ª": 5719,
      "è§Ī": 5720,
      "åĴĮå®ŀè·µ": 5721,
      "åĴĮTensorFlow": 5722,
      "ä¸ĢçĤ¹": 5723,
      "è¡£": 5724,
      "æ³¼": 5725,
      "æ³Ĭ": 5726,
      "ä¼½": 5727,
      "ä¸İåħ¶": 5728,
      "ä¸įçŃī": 5729,
      "åĬĽåģļåĬŁ": 5730,
      "å¸¸æ¸©": 5731,
      "çº¤": 5732,
      "æĦıä¸º": 5733,
      "#####": 5734,
      "æł¸ç³ĸ": 5735,
      "è·ĥ": 5736,
      "åıįåºĶæĸ¹ç¨ĭå¼ı": 5737,
      "æ´»æĢ§": 5738,
      "ç¤¾ä¼ļç§©åºı": 5739,
      "è¯¯ä»¥ä¸º": 5740,
      "èĬ¬": 5741,
      "Ġal": 5742,
      "æ¨¡åŀĭè®Ńç»ĥ": 5743,
      "æķ´çĲĨ": 5744,
      "æİ¥ä¸ĭæĿ¥": 5745,
      "æĹ¶éĹ´åĨħ": 5746,
      "æį¢ç®Ĺ": 5747,
      "ä¹Łä¼ļ": 5748,
      "è¯ģæį®": 5749,
      "è¯Ńè¨ĢçļĦ": 5750,
      "æĹłè®º": 5751,
      "ä¿ĥä½¿": 5752,
      "éĤ®": 5753,
      "åŁºåĽłåŀĭ": 5754,
      "è¿Ļç§įçİ°è±¡": 5755,
      "èģĶç³»è§Ĥ": 5756,
      "ç»ĦåĲĪæķ°": 5757,
      "çĶ»éĿ¢": 5758,
      "çĭ¬ç«ĭçļĦ": 5759,
      "ä¸»é¢ĺæĢĿæĥ³": 5760,
      "est": 5761,
      "193": 5762,
      "æĹ¥å¸¸çĶŁæ´»ä¸Ń": 5763,
      "åĩłä½ķæĦıä¹ī": 5764,
      "æľ«æľŁ": 5765,
      "ä¸°å¯ĮçļĦ": 5766,
      "æ·±åº¦åŃ¦ä¹łæ¡Ĩæŀ¶": 5767,
      "åĬ¨çĶ»çĶŁæĪĲ": 5768,
      "éļıæľºåıĺéĩı": 5769,
      "åħ¬åħ±æľįåĬ¡": 5770,
      "ä¾µçķ¥": 5771,
      "é¡¹å¼ıå®ļçĲĨ": 5772,
      "æ¹¿æ¶¦": 5773,
      "çĥŃåĬĽåŃ¦ç¬¬ä¸Ģå®ļå¾ĭ": 5774,
      "PyTorchåĴĮTensorFlow": 5775,
      "åħ±åĴĮåĽ½": 5776,
      "åħīçļĦæĬĺå°Ħ": 5777,
      "å¯¹åĲİä¸ĸ": 5778,
      "La": 5779,
      "ur": 5780,
      "Ġå¦Ĥä½ķ": 5781,
      "ĠNa": 5782,
      "ĠåĽłæŃ¤": 5783,
      "Ġè´¢æĶ¿": 5784,
      "çļĦç±»åŀĭ": 5785,
      "çļĦæķ´ä½ĵ": 5786,
      "çļĦæł¹æľ¬": 5787,
      "ä»¿": 5788,
      "å®Ŀ": 5789,
      "æĺ¯ä»İ": 5790,
      "ä¸Ģåı¥": 5791,
      "è§£è¯»": 5792,
      "æĹ±": 5793,
      "çīĮ": 5794,
      "ä¸İå®ŀè·µ": 5795,
      "ä¸İæ¶Īè´¹": 5796,
      "âĢĿâĢĶâĢĶ": 5797,
      "ä¸įåıĹ": 5798,
      "åº¦åĴĮ": 5799,
      "éĢļè¿ĩåħ·ä½ĵ": 5800,
      "Ġ15": 5801,
      "æĪĸå¤ļ": 5802,
      "äºĨä¸Ģä¸ª": 5803,
      "è¡¨æł¼": 5804,
      "æĿ¥å¢ŀå¼º": 5805,
      "æĿ¥æĶ¯æĮģ": 5806,
      "å¹¶æł¹æį®": 5807,
      "ä¸ĭèĲ½": 5808,
      "å¤ļå¤´": 5809,
      "å¥ĭ": 5810,
      "åľºåĲĪ": 5811,
      "è®°åıĻ": 5812,
      "åĢ¼å®ļçĲĨ": 5813,
      "æµģéĩı": 5814,
      "æ´»æ³¼": 5815,
      "ç¤¾åĮº": 5816,
      "ä½¿çĶ¨ç¼ĸåı·åĪĹè¡¨": 5817,
      "ç¤¾ä¼ļåĴĮè°Ĳ": 5818,
      "è¯¯å·®": 5819,
      "æ¡¥": 5820,
      "æĶ¹åĨĻ": 5821,
      "åħĥç´łä¸Ń": 5822,
      "åıĸåĢ¼": 5823,
      "åĬ¨è¯įå½¢å¼ı": 5824,
      "æķĻå¸Ī": 5825,
      "æĥħæĦŁæĪĸ": 5826,
      "æıĲç¤ºå·¥ç¨ĭ": 5827,
      "æ¢ģ": 5828,
      "ĠCO": 5829,
      "æ·±åħ¥åŃ¦ä¹ł": 5830,
      "åĽŀçİĩ": 5831,
      "æ°ĳä¸»ä¸»ä¹ī": 5832,
      "è¯ĹæŃĮè¡¨è¾¾æĬĢå·§": 5833,
      "çĨµ": 5834,
      "å¸ĮæľĽåĲĮåŃ¦ä»¬": 5835,
      "ç¬¬ä¸Ģæ¬¡": 5836,
      "æī©å¼ł": 5837,
      "æĸĩè¨Ģæĸĩä¸Ń": 5838,
      "æĺ¯ä¸ŃåĽ½åİĨåı²ä¸Ĭ": 5839,
      "æĬĽåĩº": 5840,
      "éĢıæĺİ": 5841,
      "å²¸": 5842,
      "å¼¹æĢ§": 5843,
      "èĩªåĬ¨åĮĸ": 5844,
      "ult": 5845,
      "éĢĤåºĶæĢ§": 5846,
      "é£Łçī©éĵ¾": 5847,
      "è¿ĳä»£åı²": 5848,
      "éĢļè¿ĩä¸Ĭè¿°è®²è§£": 5849,
      "åī©ä½Ļ": 5850,
      "éĽħåħ¸": 5851,
      "åı¬åĽŀçİĩ": 5852,
      "åĪĨçĤ¹ä½¿çĶ¨ç¼ĸåı·åĪĹè¡¨": 5853,
      "æłĩçĤ¹ç¬¦åı·": 5854,
      "infty": 5855,
      "=-": 5856,
      "^\\": 5857,
      "ex": 5858,
      "{(": 5859,
      "çļĦåºĶçĶ¨åľºæĻ¯": 5860,
      "çļĦæłĩåĩĨ": 5861,
      "ä»Ĺ": 5862,
      "åŃŁ": 5863,
      "åĴĮæĶ¿æ²»": 5864,
      "åľ¨LumiLearnç³»ç»Łå¼Ģåıĳä¸Ń": 5865,
      "åĪĨæĺİ": 5866,
      "é¢Ĺ": 5867,
      "çī©åĵģ": 5868,
      "æĪĸç¼º": 5869,
      "äºĨä¸Ģ": 5870,
      "çŃīåŁºæľ¬": 5871,
      "åĲĪæ³ķ": 5872,
      "å·¨": 5873,
      "éĶģ": 5874,
      "ä¸»å¯¼": 5875,
      "åĪĻä¸º": 5876,
      "åıĬæĹ¶": 5877,
      "çĽ¸éĤ»": 5878,
      "ä»İä¸Ģç§į": 5879,
      "æİ¨è¿Ľ": 5880,
      "æłĩéĩı": 5881,
      "æľŁæľĽ": 5882,
      "èĥ½å¤Łå¸®åĬ©": 5883,
      "å¤ĸè²Į": 5884,
      "åĩıéĢŁ": 5885,
      "è·¯çº¿": 5886,
      "éĢļå¸¸çĶ¨": 5887,
      "æĹłæľº": 5888,
      "ç»´ç©ºéĹ´": 5889,
      "red": 5890,
      "çĥŃèĥ½": 5891,
      "Ġwill": 5892,
      "ä¸įä»ħèĥ½": 5893,
      "æĺĵäºİ": 5894,
      "åľ°çĲĥåħ¬è½¬": 5895,
      "çĶµåŃĲè½¬ç§»": 5896,
      "éĢłæĪĲ": 5897,
      "åįķä½įæŃ£çĶµèį·": 5898,
      "äºĶä¸ª": 5899,
      "çĶ»åĩº": 5900,
      "çļĦä¸Ģåľº": 5901,
      "è®°å¿Ĩæ³ķ": 5902,
      "ump": 5903,
      "çļĦåħ³éĶ®æŃ¥éª¤": 5904,
      "åĨ·ç©ºæ°Ķ": 5905,
      "è´¢å¯Į": 5906,
      "dots": 5907,
      "å¥ĩåĩ½æķ°": 5908,
      "çī¹åĪ«æĺ¯": 5909,
      "Ġä¾ĭåı¥": 5910,
      "()`": 5911,
      "è¯´æĺİæĸ¹æ³ķåĪ¤æĸŃ": 5912,
      "æµ®åĬĽ": 5913,
      "åħ¶æł¸å¿ĥåľ¨äºİ": 5914,
      "èıľ": 5915,
      "ĠéĢīæĭ©é¢ĺæĪĸå¡«ç©ºé¢ĺ": 5916,
      "åįĥåħĭ": 5917,
      "éĢĤå½ĵçļĦ": 5918,
      "çº¦æĿŁæĿ¡ä»¶": 5919,
      "çĶŁæ®ĸç»Ĩèĥŀ": 5920,
      "æŀģå¤§åĢ¼": 5921,
      "äººæĸĩä¸»ä¹ī": 5922,
      "å®¡é¢ĺç«ĭæĦı": 5923,
      "äº¤éĢļè¿Ĳè¾ĵå¸ĥå±Ģ": 5924,
      "è·¨æ¨¡æĢģèŀįåĲĪ": 5925,
      "åĩºçĶŁçİĩ": 5926,
      "å®Įå½¢å¡«ç©º": 5927,
      "XæŁĵèī²ä½ĵ": 5928,
      "bi": 5929,
      "bmatrix": 5930,
      "dt": 5931,
      "né¡¹": 5932,
      "}\\]": 5933,
      "®é£Ł": 5934,
      "Ġä»¥": 5935,
      "Ġå®ĥ": 5936,
      "Ġæķ°åŃ¦åħ¬å¼ı": 5937,
      "çļĦä¸¤": 5938,
      "çļĦçī©ä½ĵ": 5939,
      "çļĦçī¹æ®Ĭ": 5940,
      "çĶļ": 5941,
      "ä»ĳ": 5942,
      "å®Ļ": 5943,
      "åĴĮæĹ¶éĹ´": 5944,
      "åľ¨åĲĮä¸Ģ": 5945,
      "åŃ¦çŁ¥è¯Ĩ": 5946,
      "ä½ĵæ¶²": 5947,
      "ä¸ªæĢ§": 5948,
      "åı¯çŁ¥": 5949,
      "éĢļè¿ĩå°Ĩ": 5950,
      "ä½ľä¸ļ": 5951,
      "éĩįç»Ħ": 5952,
      "åıĺæĪĲ": 5953,
      "å®ŀéĥ¨": 5954,
      "è¡ĮæĺŁ": 5955,
      "åı¯ä»¥çĶ¨æĿ¥": 5956,
      "åİŁå§ĭ": 5957,
      "è±Ĩ": 5958,
      "ç®Ģè¦ģ": 5959,
      "ç®Ģè¿°": 5960,
      "æĸ°æ°ĳä¸»ä¸»ä¹ī": 5961,
      "ä¸»è¦ģæ¶īåıĬ": 5962,
      "éĵħ": 5963,
      "ï¼īï¼Į\\(": 5964,
      "è¢ĭ": 5965,
      "åŃĹéĿ¢": 5966,
      "å¹´ä»£": 5967,
      "åĲĦèĩª": 5968,
      "åį³åı¯": 5969,
      "ç¦»åŃĲçļĦ": 5970,
      "å¯¼èĩ´äºĨ": 5971,
      "æĿĤäº¤": 5972,
      "ä½Ĩåľ¨": 5973,
      "äºĴæį¢": 5974,
      "æıĲä¾Ľèĥ½éĩı": 5975,
      "åĪĨåŃĲç»ĵæŀĦ": 5976,
      "æĺ¯ä¸Ģç§įéĢļè¿ĩ": 5977,
      "è¯´æĺİæĸĩ": 5978,
      "åĳ¨æľŁä¸º": 5979,
      "çļĦåıĺåĮĸè¶ĭåĬ¿": 5980,
      "Ġdo": 5981,
      "çĶŁäº§ä¸İæ¶Īè´¹": 5982,
      "else": 5983,
      "å¯ĨéĽĨ": 5984,
      "out": 5985,
      "ound": 5986,
      "è§Ĩé¢ĳ": 5987,
      "æľīæķĪåľ°": 5988,
      "è¾¹éķ¿": 5989,
      "å°±æĺ¯ä¸Ģä¸ª": 5990,
      "Ġhas": 5991,
      "éĽĨåĲĪA": 5992,
      "æİ¨çĲĨåĬłéĢŁ": 5993,
      "åĵªä¸Ģ": 5994,
      "åħħè¶³": 5995,
      "194": 5996,
      "æĬķå½±": 5997,
      "æĹ¥å¸¸çĶŁæ´»ä¸ŃçļĦ": 5998,
      "å¤§æ°ĶåıĹçĥŃ": 5999,
      "åŃ¦çĶŁåı¯ä»¥æĽ´å¥½åľ°æİĮæı¡": 6000,
      "å¾®è°ĥçŃĸçķ¥": 6001,
      "åı¤è¯Ĺè¯į": 6002,
      "ä¸ĩæľīå¼ķåĬĽå®ļå¾ĭ": 6003,
      "åĲįè¯įæĪĸå½¢å®¹è¯į": 6004,
      "æķ£æĸĩçº¿ç´¢": 6005,
      "åĽ½æ°ĳåħļ": 6006,
      "åĪļä½ĵ": 6007,
      "å±ıéļľ": 6008,
      "Ġdef": 6009,
      "åĬ¨çĶ»èĦļæľ¬çĶŁæĪĲ": 6010,
      "å®ĩå®Ļ": 6011,
      "éĺĲè¿°": 6012,
      ".âĢĿï¼Ī": 6013,
      "Ex": 6014,
      "IP": 6015,
      "ject": 6016,
      "lass": 6017,
      "çĴ": 6018,
      "Ġ}": 6019,
      "Ġè§£éĩĬ": 6020,
      "Ġéħ¶": 6021,
      "Ġåı£è¯Ģ": 6022,
      "çļĦéĢ»è¾ĳ": 6023,
      "çļĦæĸĩç«ł": 6024,
      "çļĦæīĢæľī": 6025,
      "çļĦè¯įæ±ĩ": 6026,
      "è¿Ŀ": 6027,
      "æĺ¯æķ°åŃ¦ä¸Ń": 6028,
      "åľ¨åĮºéĹ´": 6029,
      "ä¸Ģç»Ł": 6030,
      "æĿĳ": 6031,
      "è´«": 6032,
      "æ³ķæ²»": 6033,
      "âĢĿ**": 6034,
      "æľīä¸Ģ": 6035,
      "ä½ľçĬ¶è¯Ń": 6036,
      "å¯¹ä»Ĺ": 6037,
      "è¡¨è¿°": 6038,
      "è¯įä¹ī": 6039,
      "åħ¬å·®": 6040,
      "ä¸»æĹ¨": 6041,
      "è¡Įé©¶": 6042,
      "åĽ½çİĭ": 6043,
      "æĿ¥çĲĨè§£": 6044,
      "æĿ¥è®¡ç®Ĺ": 6045,
      "çĽ¸è¿ŀ": 6046,
      "åħ³ç³»å¼ı": 6047,
      "æģ©": 6048,
      "æłĩé¢ĺ": 6049,
      "æĺ¯æĮĩçī©ä½ĵ": 6050,
      "çŁ¥è¯Ĩç½ĳç»ľ": 6051,
      "æķ´åĲĪ": 6052,
      "æŁĲçĤ¹": 6053,
      "ç»ĨèĥŀåĨħ": 6054,
      "ä¹Łæľī": 6055,
      "èµĦéĩĳ": 6056,
      "èµĦæĸĻ": 6057,
      "åħĪè¡Į": 6058,
      "é¢ĦæľŁ": 6059,
      "ä¸¤ä¸ªæĪĸå¤ļä¸ª": 6060,
      "ç£ģéĵģ": 6061,
      "æĥħæĦŁæııåĨĻ": 6062,
      "å¦Ĥæŀľä½ł": 6063,
      "Ġpl": 6064,
      "çļĦåıĺåĮĸè§Ħå¾ĭ": 6065,
      "rom": 6066,
      "Ġhis": 6067,
      "å¹²æĹ±": 6068,
      "æĪĳä»¬åı¯ä»¥æĽ´å¥½åľ°çĲĨè§£": 6069,
      "åĬĽçļĦåĲĪæĪĲ": 6070,
      "åŁİå¸ĤçļĦ": 6071,
      "ç´¢å¼ķ": 6072,
      "åĲĪæĪĲæ°¨": 6073,
      "ä¼°è®¡": 6074,
      "åĮĢéĢŁ": 6075,
      "è®¤è¯ĨåĪ°": 6076,
      "éļ¾çĤ¹": 6077,
      "è¡¥éĽĨ": 6078,
      "åĤ¨åŃĺ": 6079,
      "å¾Ĺåĩºç»ĵè®º": 6080,
      "æŃ£å¼¦åĩ½æķ°": 6081,
      "ä¸įåı¯æĪĸç¼º": 6082,
      "çĦ¦çĤ¹": 6083,
      "é£ŀè¡Į": 6084,
      "quad": 6085,
      "ç®Ģæ´ģæĺİäºĨ": 6086,
      "ç£·éħ¸": 6087,
      "æĺİæĺ¾çļĦ": 6088,
      "å°¤åħ¶æĺ¯åľ¨": 6089,
      "è¿Ńä»£ä¼ĺåĮĸ": 6090,
      "å®ŀè·µæĺ¯è®¤è¯Ĩ": 6091,
      "éĹŃçİ¯è®Ńç»ĥç³»ç»Ł": 6092,
      "TeX": 6093,
      "\",": 6094,
      "),": 6095,
      "300": 6096,
      "AA": 6097,
      "bd": 6098,
      "Ġè®¾è®¡": 6099,
      "Ġle": 6100,
      "Ġå¿ĺè®°": 6101,
      "çļĦçĽ®æłĩ": 6102,
      "çļĦæµģåĬ¨": 6103,
      "çļĦçĶ¨æ³ķ": 6104,
      "çļĦçī¹æĢ§": 6105,
      "çļĦèīºæľ¯": 6106,
      "ãĢĤâĢľ": 6107,
      "åŃĶ": 6108,
      "åĴĮä¸ªäºº": 6109,
      "åľ¨ä¸ŃåĽ½": 6110,
      "æĢ§æĪĸ": 6111,
      "åİļ": 6112,
      "æľīåĬĽ": 6113,
      "æĸ¹å·®": 6114,
      "ä¸įè¦ģ": 6115,
      "ä¸įç¡®å®ļ": 6116,
      "åį¡": 6117,
      "éĢļè¿ĩè°ĥæķ´": 6118,
      "éĩįéĩı": 6119,
      "éĩįè§Ĩ": 6120,
      "æį·": 6121,
      "ä¸»æµģ": 6122,
      "ä¸»å¼ł": 6123,
      "æľ¬èº«": 6124,
      "æĿ¥èĩª": 6125,
      "åı¯ä»¥æıĲé«ĺ": 6126,
      "å¹¶è¡Į": 6127,
      "åĩºéĶĻ": 6128,
      "éĩįè¦ģå½±åĵį": 6129,
      "åĲĳä¸ĭ": 6130,
      "æŃ£éĿ¢": 6131,
      "å¤ļåħļ": 6132,
      "å¥ĸ": 6133,
      "æĥħæĻ¯": 6134,
      "åıįåºĶå¼ı": 6135,
      "å½±åĵįçĿĢ": 6136,
      "ine": 6137,
      "æ°ĳçĶŁ": 6138,
      "ral": 6139,
      "è¯¯çĶ¨": 6140,
      "åŁºæľ¬å®ļçĲĨ": 6141,
      "éĢīåıĸ": 6142,
      "éķ¿æĸ¹": 6143,
      "æ¡£": 6144,
      "æ¯ıç§į": 6145,
      "ĠéĢļè¿ĩçĲĨè§£": 6146,
      "éľĢè¦ģèĢĥèĻĳ": 6147,
      "ç¢į": 6148,
      "éĢļå¸¸ä¼ļ": 6149,
      "éĢļå¸¸åĩºçİ°åľ¨": 6150,
      "Ġåħ¸åŀĭä¾ĭé¢ĺåıĬ": 6151,
      "ç½ĳç«Ļ": 6152,
      "åľ°çĲĥçļĦ": 6153,
      "ä¹¦çľģ": 6154,
      "çĲĨè§£åĴĮè®°å¿Ĩ": 6155,
      "çĶµåŃĲä¼łéĢĴ": 6156,
      "è¡¨çİ°å½¢å¼ı": 6157,
      "rox": 6158,
      "èģĶç³»èµ·æĿ¥": 6159,
      "Ġ60": 6160,
      "çľŁçĲĨ": 6161,
      "åĬĽçļĦå¤§å°ı": 6162,
      "è¾ĵåħ¥åºıåĪĹ": 6163,
      "æĹ¥å¸¸çĶŁæ´»": 6164,
      "éĺ»åĬĽ": 6165,
      "COOH": 6166,
      "å¦Ļ": 6167,
      "ä»ĭè¯įæĲŃéħį": 6168,
      "è§£æĶ¾åĨĽ": 6169,
      "æĳ©å°Ķè´¨éĩı": 6170,
      "åŃ£èĬĤåıĺåĮĸ": 6171,
      "è¶ħéĩįä¸İ": 6172,
      "é²ģ": 6173,
      "ä»Ķç»Ĩéĺħè¯»": 6174,
      "æĸĹäºī": 6175,
      "èµĭäºĪ": 6176,
      "ä¸Ńåįİæ°ĳæĹıç²¾ç¥ŀ": 6177,
      "åĽ°éļ¾": 6178,
      "Ġteac": 6179,
      "çĮľæµĭ": 6180,
      "éĤ®ä»¶": 6181,
      "LaTeX": 6182,
      "æĸ°æ°ĳä¸»ä¸»ä¹īéĿ©åĳ½": 6183,
      "èĿ": 6184,
      "Ġint": 6185,
      "çļĦæ°´": 6186,
      "çļĦè®¾è®¡": 6187,
      "çļĦçī¹å¾ģ": 6188,
      "çļĦéķ¿åº¦": 6189,
      "ï¼Į$\\": 6190,
      "åĴĮåıįåºĶ": 6191,
      "åľ¨å¤ĦçĲĨ": 6192,
      "å¿§": 6193,
      "è§£éĽĨ": 6194,
      "å°¼": 6195,
      "ï¼ī+": 6196,
      "ä¸İåĪĽæĸ°": 6197,
      "æĶ»": 6198,
      "å¯¹çļĦ": 6199,
      "å¯¹çī©ä½ĵ": 6200,
      "åıĺå¾Ĺ": 6201,
      "åı¯ä»¥å¸®åĬ©åŃ¦çĶŁ": 6202,
      "åİŁåĩ½æķ°": 6203,
      "æ°Ķåĳ³": 6204,
      "èĩªä¸»": 6205,
      "å¹³åı°": 6206,
      "å®ĥæ¶īåıĬ": 6207,
      "ç±»åĪ«": 6208,
      "èĢĮè¨Ģ": 6209,
      "åħ³ç³»çļĦ": 6210,
      "åŃ¦çĶŁå°Ĩ": 6211,
      "Ġti": 6212,
      "è¡¨è¾¾çļĦ": 6213,
      "Ġac": 6214,
      "ç»ıæµİçļĦ": 6215,
      "å½ĵåľ°": 6216,
      "æ¨¡åŀĭè¯Ħä¼°": 6217,
      "èĬĤçĤ¹çļĦ": 6218,
      "æĹ¶éĹ´é¡ºåºı": 6219,
      "æĢ»ä½ĵ": 6220,
      "ä»ĸäºº": 6221,
      "æŃ£ç¡®çĲĨè§£": 6222,
      "åĻ¬": 6223,
      "Ġse": 6224,
      "æĹłè¯¯": 6225,
      "èĥ½éĩıå®ĪæģĴå®ļå¾ĭ": 6226,
      "æıĲé«ĺäºĨ": 6227,
      "äº§çĶŁçĶµæµģ": 6228,
      "é¢ĺçĽ®çĶŁæĪĲ": 6229,
      "è´Łæķ°": 6230,
      "åģĩè®¾æĪĳä»¬": 6231,
      "æĸ½åĬł": 6232,
      "æĢĿæĥ³è§£æĶ¾": 6233,
      "æĶ¿çŃĸåĴĮ": 6234,
      "äºĭä»¶A": 6235,
      "å®ŀéªĮä¸Ń": 6236,
      "åĪĨå¸ĥè§Ħå¾ĭ": 6237,
      "éĺ¶å¯¼æķ°": 6238,
      "Ġhard": 6239,
      "Ġhappy": 6240,
      "è§Ĥå¯ŁåĪ°": 6241,
      "å¸ĤåľºæľºåĪ¶": 6242,
      "ä¸īè§ĴæģĴçŃīåıĺæį¢": 6243,
      "æİ¨çĲĨä¸İ": 6244,
      "éĴłçļĦ": 6245,
      "çĹħåİŁ": 6246,
      "çĨĶ": 6247,
      "ç¾¤ä¼Ĺ": 6248,
      "æī©å¤§": 6249,
      "åıĮå±Ĥ": 6250,
      "é»ĳ": 6251,
      "ç»ķå¤ªéĺ³": 6252,
      "ĠNH": 6253,
      "æİ¨æĸŃåĩº": 6254,
      "çĩ¥": 6255,
      "çģ«ç®Ń": 6256,
      "å¿ħè¦ģæĿ¡ä»¶": 6257,
      "Ġåħ³éĶ®è¦ģçĤ¹": 6258,
      ")/(": 6259,
      "è®¡ç®Ĺæľºç§ĳåŃ¦": 6260,
      "æĻ®éĢļ": 6261,
      "å¤įåĲĪç»ĵæŀĦ": 6262,
      "ä¸İæ°´åıįåºĶçĶŁæĪĲ": 6263,
      "çĽ¸ä½įå·®": 6264,
      "åĳĬè¯ī": 6265,
      "å®ıè§Ĥè°ĥæİ§æīĭæ®µ": 6266,
      "å¤±åİ»çĶµåŃĲ": 6267,
      "ä¸Ļéħ®": 6268,
      "æ´ªæ°´": 6269,
      "åĩ½æķ°ä¸İæ¨¡åĿĹ": 6270,
      "åĲ¯èĴĻè¿ĲåĬ¨": 6271,
      "ĠâĩĮ": 6272,
      "è¶ħéĩįä¸İå¤±éĩį": 6273,
      "%ãĢĤ": 6274,
      "70": 6275,
      "Ag": 6276,
      "cas": 6277,
      "pt": 6278,
      "}}{\\": 6279,
      "è¸": 6280,
      "Ġu": 6281,
      "Ġåı¯ä»¥": 6282,
      "Ġæł¸å¿ĥå®ļä¹ī": 6283,
      "ï¼Į**": 6284,
      "è¯ļ": 6285,
      "åŃ©": 6286,
      "åĴĮåĬŁèĥ½": 6287,
      "ä¸Ģå¯¹": 6288,
      "å¿Ļ": 6289,
      "çİ»": 6290,
      "ä»¥å®ŀçİ°": 6291,
      "æľīä¸¤ä¸ª": 6292,
      "æĪĸæĬĢå·§": 6293,
      "è´¨åŃĲ": 6294,
      "æĭ¿": 6295,
      "æĭĵ": 6296,
      "å°Ĩä¸Ģä¸ª": 6297,
      "æĻ´": 6298,
      "éĽ·": 6299,
      "å°ıçĲĥ": 6300,
      "åįķä¸Ģ": 6301,
      "ä¸¤ç«¯": 6302,
      "æłĩè¦ģæ±Ĥ": 6303,
      "Ġar": 6304,
      "ç«ĭæĸ¹": 6305,
      "æĹ¶éĹ´çļĦ": 6306,
      "æĢ»æķ°": 6307,
      "éĢīæĭ©æľĢ": 6308,
      "æĥ³è¦ģ": 6309,
      "éĥ½ä¼ļ": 6310,
      "Ġcan": 6311,
      "èµ·æºĲ": 6312,
      "æķĻæİĪ": 6313,
      "æĥħæĦŁåĴĮ": 6314,
      "Ġ50": 6315,
      "äºĴè¡¥": 6316,
      "è¾ĥå¤§": 6317,
      "è¿Ļä¸ĢæĹ¶æľŁ": 6318,
      "leq": 6319,
      "æĶ¿çŃĸåĪ¶å®ļ": 6320,
      "ĠCu": 6321,
      "æ¯ıä¸ªäºº": 6322,
      "åŃĺåľ¨çļĦ": 6323,
      "çİ°ä»£æĸĩéĺħè¯»": 6324,
      "è¾¹å½¢": 6325,
      "çĽ®æłĩåĩ½æķ°": 6326,
      "çļĦçĲĨè§£ä¸İåºĶçĶ¨": 6327,
      "æķĪçİĩåĴĮ": 6328,
      "å¹²çĩ¥": 6329,
      "æĪĳä»¬åı¯ä»¥æĽ´": 6330,
      "æ±Ĥè§£æľªçŁ¥": 6331,
      "éĵģä¸īè§Ĵ": 6332,
      "------": 6333,
      "Ġä¸ĢèĪ¬": 6334,
      "ç©ºæ°Ķä¸Ń": 6335,
      "ä¸ľåĮĹ": 6336,
      "æĬķåħ¥": 6337,
      "å°ģéĹŃ": 6338,
      "åĮĢéĢŁçĽ´çº¿è¿ĲåĬ¨": 6339,
      "çº¢çĲĥ": 6340,
      "æĹ¶æĢģå¯¹æ¯Ķ": 6341,
      "è´§å¸ģæĶ¿çŃĸ": 6342,
      "ç¼ĸç¨ĭä¸Ń": 6343,
      "äº«æľī": 6344,
      "è¯¾æłĩè¦ģæ±Ĥ": 6345,
      "æļĹç¤º": 6346,
      "çŃīå·®æķ°åĪĹæ±ĤåĴĮ": 6347,
      "åŀĤçĽ´äºİ": 6348,
      "æł·æľ¬ç©ºéĹ´": 6349,
      "æľ¬æ¨¡åĿĹå°Ĩä»ĭç»į": 6350,
      "æ¥¼": 6351,
      "çĩĥæĸĻ": 6352,
      "åħħåĪĨæĿ¡ä»¶": 6353,
      "approx": 6354,
      "ä¸Ģç¯ĩåħ³äºİ": 6355,
      "ĠåĨħå®¹åĩĨç¡®": 6356,
      "æĬĵä½ı": 6357,
      "åľ¨æŁĲäºĽæĥħåĨµä¸ĭ": 6358,
      "ä½Ĩä¸įéĻĲäºİ": 6359,
      "åŃ¦æ®µè¯¾æłĩè¦ģæ±Ĥ": 6360,
      "è¯įåĲĳéĩıè¡¨ç¤º": 6361,
      "Ġstudent": 6362,
      "åīĬå¼±": 6363,
      "éĩĳå±ŀæ´»åĬ¨æĢ§": 6364,
      "å¸¸æ¸©ä¸ĭ": 6365,
      "èĬ¬å¥ĩ": 6366,
      "å¤§æ°ĶåıĹçĥŃè¿ĩç¨ĭ": 6367,
      "ä¸Ļéħ®éħ¸": 6368,
      "PT": 6369,
      "}ãĢĤ": 6370,
      "èĶ": 6371,
      "éº": 6372,
      "Ġå¤§": 6373,
      "Ġæ¯Ķè¾ĥ": 6374,
      "ĠåĮħåĲ«": 6375,
      "Ġ...": 6376,
      "ĠæŃ¤é¢ĺ": 6377,
      "ıè§Ī": 6378,
      "çļĦç»ĵåĲĪ": 6379,
      "åıł": 6380,
      "ä»ģ": 6381,
      "åĲ¹": 6382,
      "åĴĮéĿŀ": 6383,
      "åĴĮæĬĢå·§": 6384,
      "åĨĹ": 6385,
      "è¦Ĩ": 6386,
      "ç§ĺ": 6387,
      "ä¸İéħ¸": 6388,
      "æľīçĶ¨": 6389,
      "æµıè§Ī": 6390,
      "æĪĸæĥħæĦŁ": 6391,
      "å¯¹æĸ¹": 6392,
      "è¡¨è¯Ń": 6393,
      "æĸĩæ¡£": 6394,
      "éĶĮ": 6395,
      "åı¥é¦ĸ": 6396,
      "éĹ´éļĶ": 6397,
      "åĪĻç§°": 6398,
      "ï¼Ľï¼Ī": 6399,
      "åı¯ä»¥åĪĨä¸º": 6400,
      "å¤§ä¸Ģç»Ł": 6401,
      "æ°Ķæµģ": 6402,
      "ä»İä¸Ģä¸ª": 6403,
      "æŃ£æĸĩ": 6404,
      "åŃ¦ä¹łèĢħ": 6405,
      "è±¡éĻĲ": 6406,
      "åįķä½ĵ": 6407,
      "åĪĹä¸¾": 6408,
      "æłĩè®°": 6409,
      "åīĸ": 6410,
      "éĽĨä¼ļ": 6411,
      "åĮħæĭ¬ä½Ĩä¸įéĻĲäºİ": 6412,
      "è§Ĥå¿µ": 6413,
      "å®ŀéĻħæĵįä½ľ": 6414,
      "æĻ¯è±¡": 6415,
      "èĥ½å¤ŁæİĮæı¡": 6416,
      "çī©ä½ĵåĬ¨èĥ½": 6417,
      "ä»¥åıĬå¦Ĥä½ķ": 6418,
      "ä¹Łä¸º": 6419,
      "ä¹Łèĥ½": 6420,
      "ç¡®ä¿ĿåĽ½å®¶": 6421,
      "æł¼å±Ģ": 6422,
      "çĶŁæ´»æ°´å¹³": 6423,
      "ç£ģæĦŁåºĶ": 6424,
      "åĽĽåĪĻ": 6425,
      "è¾ĥä½İ": 6426,
      "è¯ķåĽ¾": 6427,
      "çŁ¥è¯ĨçĤ¹æıĲåıĸ": 6428,
      "ç²¾åĩĨ": 6429,
      "æ¸©åº¦åįĩé«ĺ": 6430,
      "çļĦåıĺåĮĸéĩı": 6431,
      "Ġè®°å¿Ĩåı£è¯ĢæĪĸæĬĢå·§": 6432,
      "çĻ½å¤©": 6433,
      "åĨľæ°ĳ": 6434,
      "old": 6435,
      "ä»£è¡¨äººçī©": 6436,
      "åľĨå½¢": 6437,
      "éĤ£äºĽ": 6438,
      "åŁİå¸Ĥè§ĦåĪĴ": 6439,
      "åħ¬æ°ĳçļĦæĶ¿æ²»": 6440,
      "è¯ĹæŃĮä¸ŃçļĦ": 6441,
      "å¯¹åºĶåŃ¦æ®µè¯¾æłĩè¦ģæ±Ĥ": 6442,
      "èģĮä¸ļ": 6443,
      "ç¬¦åĲĪå¯¹åºĶåŃ¦æ®µè¯¾æłĩè¦ģæ±Ĥ": 6444,
      "ĠHe": 6445,
      "éĩĩéĽĨ": 6446,
      "åĩºçİ°çļĦ": 6447,
      "éĻįæ°´éĩı": 6448,
      "æĬ½åıĸ": 6449,
      "ä½ľæĸĩç´łæĿĲ": 6450,
      "ä¸ŃåĽ½åħ±äº§åħļé¢Ĩå¯¼": 6451,
      "Ġâī¤": 6452,
      "æľĢå°ıåĮĸ": 6453,
      "æĿĥéĩįåĪĨéħį": 6454,
      "éĢīä¸¾æĿĥ": 6455,
      "æ¡Īä¾ĭåĪĨæŀĲé¢ĺ": 6456,
      "ç§¯æŀģåıĤä¸İ": 6457,
      "ä¸²èģĶ": 6458,
      "éĢ»è¾ĳæĢĿç»´èĥ½åĬĽ": 6459,
      "resent": 6460,
      "ç«ĸçĽ´æĸ¹åĲĳ": 6461,
      "äº¤åıīéªĮè¯ģ": 6462,
      "çļĦå·¥ä½ľåİŁçĲĨ": 6463,
      "åºŁéĻ¤": 6464,
      "HTTP": 6465,
      "LaTeXè¯Ńæ³ķ": 6466,
      "200": 6467,
      "Ca": 6468,
      "has": 6469,
      "ng": 6470,
      "ĠåĬłéĢŁåº¦": 6471,
      "Ġä¸»è¯Ń": 6472,
      "ä¸ĺ": 6473,
      "çļĦè®²è§£": 6474,
      "çļĦæķħäºĭ": 6475,
      "åĴĮä½ľçĶ¨": 6476,
      "æĺ¯äººç±»": 6477,
      "æĺ¯çī©çĲĨåŃ¦ä¸Ń": 6478,
      "åĪĨå¼Ģ": 6479,
      "çİī": 6480,
      "ä¸İåıįåĲĳä¼łæĴŃ": 6481,
      "æĹ¶ä¼ļ": 6482,
      "æľīçļĦ": 6483,
      "ä¸įæ¸ħ": 6484,
      "ä¸įèĢĥèĻĳ": 6485,
      "åı¯æī©å±ķ": 6486,
      "åŁºè´¨": 6487,
      "åĲĮä¸Ģä¸ª": 6488,
      "åıĳçĶµ": 6489,
      "åıĳéŁ³": 6490,
      "åıĳéĢģ": 6491,
      "æĭĶ": 6492,
      "å¹¶ç¡®ä¿Ŀ": 6493,
      "åºĶçĶ¨åĪ°": 6494,
      "æł¸å¿ĥä»·åĢ¼è§Ĥ": 6495,
      "æŃ£åĪĻ": 6496,
      "èĢĮæĺ¯": 6497,
      "ç¤¾äº¤": 6498,
      "ä¸¤æ¬¡": 6499,
      "å·¥åİĤ": 6500,
      "æĺ¯æĮĩåľ°çĲĥ": 6501,
      "éĢŁåº¦åıĺåĮĸ": 6502,
      "ç³»ç»Łåľ°": 6503,
      "æ¬¾": 6504,
      "æĹ¶éĹ´åĴĮ": 6505,
      "å¤ĸäº¤": 6506,
      "ç»Ĩèĥŀè´¨": 6507,
      "ather": 6508,
      "å·®è·Ŀ": 6509,
      "æŀģåľ°": 6510,
      "æĶ¶çĽĬ": 6511,
      "åĻ¨å®ĺ": 6512,
      "å½¢å¼ıä¸º": 6513,
      "Ġsh": 6514,
      "Ġsta": 6515,
      "åıĳçĶŁçļĦæ¦Ĥçİĩ": 6516,
      "èĩªçĦ¶çİ¯å¢ĥ": 6517,
      "éĢļå¸¸ä¸İ": 6518,
      "éĢļå¸¸ä»¥": 6519,
      "ä¹ĭéĹ´çļĦçĽ¸äºĴä½ľçĶ¨": 6520,
      "æĹłéľĢ": 6521,
      "å®ļçĲĨçļĦ": 6522,
      "æ¶²ä½ĵ": 6523,
      "å¤įæĿĤæĢ§": 6524,
      "çĲĨè§£åĴĮåºĶçĶ¨": 6525,
      "åĪĨè§£æĪĲ": 6526,
      "åįķä½įä¸º": 6527,
      "å¢ŀå¼ºäºĨ": 6528,
      "sinÎ¸": 6529,
      "çĶŁçī©å¤ļæł·æĢ§": 6530,
      "åĬ¨æĢģåĪĨæŀĲ": 6531,
      "åĪĨåĪ«æĺ¯": 6532,
      "ä¸ĩåħĥ": 6533,
      "ĠéĢļè¿ĩä»¥ä¸ĬåĨħå®¹": 6534,
      "å¼¹åĬĽ": 6535,
      "åĳ¼åĲ¸ä½ľçĶ¨": 6536,
      "ĠéĢļè¿ĩè¿ĻäºĽæŃ¥éª¤": 6537,
      "éĢīé¡¹ä¸Ń": 6538,
      "ä¸ĢèĪ¬çİ°åľ¨æĹ¶": 6539,
      "å¿ħè¦ģçļĦ": 6540,
      "è´Ńçī©": 6541,
      "è±¡å¾ģæĦıä¹ī": 6542,
      "èģļåĲĪ": 6543,
      "å¡ĳéĢłäºĨ": 6544,
      "åĬłåĩıæ³ķ": 6545,
      "Ġlike": 6546,
      "ä¸ºåĲİç»ŃåŃ¦ä¹ł": 6547,
      "çļĦçĲĨè§£åĴĮåºĶçĶ¨èĥ½åĬĽ": 6548,
      "æŃ£ç¡®çŃĶæ¡Īä¸º": 6549,
      "çģ¯æ³¡": 6550,
      "APIæľįåĬ¡": 6551,
      "ç½Ĺé©¬æ³ķä½ĵç³»": 6552,
      "çīĪæľ¬": 6553,
      "ä¸»è°ĵä¸Ģèĩ´åİŁåĪĻ": 6554,
      "ç¤¾ä¼ļåħ¬å¹³æŃ£ä¹ī": 6555,
      "åīįåĲĳä¼łæĴŃä¸İåıįåĲĳä¼łæĴŃ": 6556,
      "ä¸ĥéĢīäºĶè¿ĩæ¸¡è¯į": 6557,
      "çĶļèĩ³": 6558,
      "cases": 6559,
      ")!": 6560,
      "36": 6561,
      "ning": 6562,
      "çŀ": 6563,
      "ĠåĬ¨è¯į": 6564,
      "Ġä¾ĭåŃĲ": 6565,
      "Ġç»Ļå®ļ": 6566,
      "ĠçīĽé¡¿": 6567,
      "Ġæ°¯æ°Ķ": 6568,
      "ï¼Į'": 6569,
      "åĴĮåħ¬å¼ı": 6570,
      "åĴĮçİ¯å¢ĥ": 6571,
      "æĺ¯é«ĺä¸Ń": 6572,
      "æĺ¯è¯Ńæĸĩ": 6573,
      "åĪĨåĬĽ": 6574,
      "çī¢": 6575,
      "å°ļ": 6576,
      "åĨł": 6577,
      "ä¸İæĹ¶éĹ´": 6578,
      "ç®±": 6579,
      "ä¿Ĺ": 6580,
      "æĸĩåĨĻä½ľ": 6581,
      "æĿ¥æŀĦå»º": 6582,
      "å¤§èĦĳ": 6583,
      "ä¸ŃçļĦä¸Ģç§į": 6584,
      "æŃ£æķ´æķ°": 6585,
      "ä¹ĭåĲİ": 6586,
      "äºĭä¾ĭ": 6587,
      "hed": 6588,
      "äº§éĩı": 6589,
      "ç¤¾ä¼ļä¿Ŀéļľ": 6590,
      "è¿ĻäºĽåĽłç´ł": 6591,
      "æĦŁåĴĮ": 6592,
      "æĦŁçŁ¥": 6593,
      "æĪĳä»¬çļĦ": 6594,
      "æĪĳä»¬èĥ½å¤Ł": 6595,
      "ä¸»è¦ģçļĦ": 6596,
      "ä¿¡æģ¯çļĦ": 6597,
      "å½¢æĪĲä¸Ģä¸ª": 6598,
      "çī©è´¨è·¨èĨľè¿Ĳè¾ĵ": 6599,
      "å¹´å®ªæ³ķ": 6600,
      "Ġsa": 6601,
      "åĲįè¨Ģ": 6602,
      "é¢Ħéĺ²": 6603,
      "Ġfin": 6604,
      "æĺ¯åĲ¦åŃĺåľ¨": 6605,
      "æ¶Īå¤±": 6606,
      "è¯ķéªĮ": 6607,
      "ĠAB": 6608,
      "è¿Ļä¸ĢåĪ¶åº¦": 6609,
      "è¯ĨåĪ«åĴĮ": 6610,
      "çļĦè¿ĩç¨ĭä¸Ń": 6611,
      "å£®": 6612,
      "äººçī©æĢ§æł¼": 6613,
      "çĲĨè§£åĴĮæİĮæı¡": 6614,
      "Ġæĺ¯ä¸Ģä¸ª": 6615,
      "å¿«æħ¢": 6616,
      "åĲ¸å¼ķåĬĽ": 6617,
      "æľīåĬ©äºİçĲĨè§£": 6618,
      "æľīåĬ©äºİåŃ¦çĶŁ": 6619,
      "ä¿ĿæĮģä¸Ģèĩ´": 6620,
      "çļĦæł¸å¿ĥå®ļä¹ī": 6621,
      "è§£éĩĬäºĨ": 6622,
      "åĮºåŁŁçļĦ": 6623,
      "çĲĨè®ºçŁ¥è¯Ĩ": 6624,
      "é¢Ħæµĭç»ĵæŀľ": 6625,
      "èº«ä»½": 6626,
      "å·¥ä½ľåİŁçĲĨ": 6627,
      "å¡«åħ¥": 6628,
      "çŁ©éĺµçļĦ": 6629,
      "æĦŁåºĶçĶµåĬ¨åĬ¿": 6630,
      "å¤§æ°Ķå±Ĥ": 6631,
      "èŀº": 6632,
      "éļĲåĲ«": 6633,
      "max": 6634,
      "éĢļè¿ĩåŃ¦ä¹łè¿ĻäºĽ": 6635,
      "æĽ´å¥½åľ°çĲĨè§£åĴĮåºĶçĶ¨": 6636,
      "Ġover": 6637,
      "å¡ĳæĸĻ": 6638,
      "èģļç±»": 6639,
      "----------------": 6640,
      "ä»¥ä¸ĭæĺ¯åħ³äºİ": 6641,
      "æ··åĲĪçī©": 6642,
      "å¯ĴåĨ·": 6643,
      "ause": 6644,
      "èĩªçĦ¶çķĮä¸Ń": 6645,
      "èµĦæľ¬ä¸»ä¹ī": 6646,
      "åı¤è¯Ĺéī´èµıæľ¯è¯Ń": 6647,
      "çº¤ç»´": 6648,
      "åħĪè¡Įè¯į": 6649,
      "çĶµåŃĲä¼łéĢĴéĵ¾": 6650,
      "åīĸæŀĲ": 6651,
      "33": 6652,
      "68": 6653,
      "\\%": 6654,
      "print": 6655,
      "queue": 6656,
      "¨å¤©": 6657,
      "Ġä¸Ĭ": 6658,
      "Ġè¿ĻéĩĮ": 6659,
      "Ġç»ĵæŀĦæ¸ħæĻ°": 6660,
      "çļĦçĶµåŃĲ": 6661,
      "çļĦæķĪæŀľ": 6662,
      "çļĦæŃ£ç¡®æĢ§": 6663,
      "ç»İ": 6664,
      "éĢĹ": 6665,
      "æĺ¯åĽ½å®¶": 6666,
      "å½»": 6667,
      "çĽ²": 6668,
      "âĢĿï¼ļ": 6669,
      "ä¸įåĿĩ": 6670,
      "åı¯çĶ¨": 6671,
      "åŁºéħ¸": 6672,
      "æ¦Ĥåŀĭ": 6673,
      "è½¼": 6674,
      "å¤§åŃ¦": 6675,
      "æ°ĶæĢģ": 6676,
      "ä¸ŃçļĦä½įç½®": 6677,
      "ä½¿æĸĩç«ł": 6678,
      "åħ¬å¼ıæİ¨å¯¼": 6679,
      "æ²¹": 6680,
      "ä¸Ģä¸ªéĩįè¦ģçļĦ": 6681,
      "æĽ´é«ĺ": 6682,
      "ä¹ĭå¤Ħ": 6683,
      "è®°å¾Ĺ": 6684,
      "åĲİæľŁ": 6685,
      "ä¸įåĲĮåľ°åĮº": 6686,
      "ä½¿çĶ¨LaTeXè¯Ńæ³ķ": 6687,
      "åħ³éĶ®è¯į": 6688,
      "ç¦»æķ£": 6689,
      "æĦŁåĪ°": 6690,
      "æĦŁåıĹåĪ°": 6691,
      "ä¸¤æĿ¡": 6692,
      "æķ°æį®è¿Ľè¡Į": 6693,
      "ä¸īéģĵéĺ²çº¿": 6694,
      "æŁĲåľ°": 6695,
      "çĥŁ": 6696,
      "çĶ¨äºİè¡¨ç¤º": 6697,
      "ç§»é¡¹": 6698,
      "çļĦåŁºæľ¬è§Ħå¾ĭ": 6699,
      "èĩªçĦ¶å¢ŀéķ¿çİĩ": 6700,
      "èĥ½éĩıè½¬åĮĸ": 6701,
      "èĥ½éĩıå®ĪæģĴ": 6702,
      "äºĴçĽ¸": 6703,
      "èĤĮ": 6704,
      "æ¶ĪéĻ¤": 6705,
      "å¦Ĥæŀľä¸Ģä¸ª": 6706,
      "åĪĨåŃĲåĴĮ": 6707,
      "éļıåĲİ": 6708,
      "èĭ±æĸĩ": 6709,
      "æīĢæľīåı¯èĥ½": 6710,
      "å·¥ä¸ļéĿ©åĳ½": 6711,
      "æĴ°": 6712,
      "æ³ĽåĮĸ": 6713,
      "ãĢĭï¼Į": 6714,
      "çĶµèį·éĩı": 6715,
      "çļĦä¸Ģèĩ´": 6716,
      "å°Ķå®ļå¾ĭ": 6717,
      "å¼±ç¢±": 6718,
      "ĠçļĦåĢ¼": 6719,
      "åľ°çĲĨçī¹å¾ģ": 6720,
      "éĵ¾è¡¨": 6721,
      "æĮīåĬ³": 6722,
      "æµģåĬ¨éķ¶åµĮ": 6723,
      "éĺ²æŃ¢": 6724,
      "æĢ§èĥ½åĴĮ": 6725,
      "ç¼ºå°ĳ": 6726,
      "ood": 6727,
      "ç«¯çĤ¹": 6728,
      "åľ¨å®ŀéĻħçĶŁæ´»ä¸Ń": 6729,
      "COO": 6730,
      "åįıåĬ©": 6731,
      "å¸ĿåĽ½": 6732,
      "åŃ¦çĶŁèĥ½å¤Łåħ¨éĿ¢çĲĨè§£": 6733,
      "ecause": 6734,
      "âĪ©": 6735,
      "æ¼Ķç»İ": 6736,
      "Â°ï¼Į": 6737,
      "åĭ¤": 6738,
      "ä¿®é¥°åĲįè¯į": 6739,
      "åıĳçĶŁçļĦäºĭæĥħ": 6740,
      "è¿Ļæĺ¯åĽłä¸º": 6741,
      "çĦ¦è·Ŀ": 6742,
      "Ġå°ıç»ĵ": 6743,
      "å½¼æŃ¤": 6744,
      "æľ¨åĿĹ": 6745,
      "åıĸå¾ĹäºĨ": 6746,
      "âīł": 6747,
      "def": 6748,
      "æĽ´æ·±åħ¥åľ°çĲĨè§£": 6749,
      "åį°åº¦": 6750,
      "åĮºä½įåĽłç´łæĺ¯æĮĩ": 6751,
      "å¤§éĻĨæĢ§": 6752,
      "èĭıè½¼": 6753,
      "å¼ºçĥĪçļĦ": 6754,
      "ä¼ĺåħĪçº§": 6755,
      "æ¡ĮåŃĲ": 6756,
      "èĲ¥åħ»çº§": 6757,
      "æľ¬æ¨¡åĿĹæĹ¨åľ¨ä¸ºåĪĿåŃ¦èĢħæıĲä¾ĽPython": 6758,
      "åŃŁå¾·": 6759,
      "æİ¨çĲĨä¸İè¯ģæĺİ": 6760,
      "éĵģä¸īè§Ĵè½¬åĮĸ": 6761,
      "ç£ģæĦŁåºĶå¼ºåº¦": 6762,
      "AD": 6763,
      "RNN": 6764,
      "][": 6765,
      "^(": 6766,
      "imp": 6767,
      "æ¾": 6768,
      "ĊĊĠĠĠ": 6769,
      "Ġï¼ī": 6770,
      "ĠåŁºæľ¬": 6771,
      "Ġä»İåı¥": 6772,
      "Ġlo": 6773,
      "Ġä½įç§»": 6774,
      "Ġå¯¼æķ°": 6775,
      "Ġæ°¨": 6776,
      "Ġå¿½è§Ĩ": 6777,
      "çļĦæĢĿæĥ³": 6778,
      "çļĦè®¤è¯Ĩ": 6779,
      "çļĦä»·æł¼": 6780,
      "çļĦèģĮèĥ½": 6781,
      "çļĦå¹³æĸ¹": 6782,
      "çļĦè½¬åıĺ": 6783,
      "çļĦè¯¦ç»Ĩè®²è§£": 6784,
      "ï¼ļ`": 6785,
      "æĺ¨å¤©": 6786,
      "æĺ¯çĲĨè§£": 6787,
      "åľ¨åĨĻä½ľ": 6788,
      "åľ¨åı¥åŃĲä¸Ń": 6789,
      "è´Ŀ": 6790,
      "éĢļè¿ĩè®¡ç®Ĺ": 6791,
      "çŃīæĬĢæľ¯": 6792,
      "Ġ25": 6793,
      "æī°": 6794,
      "è¿ĽåĮĸ": 6795,
      "å¹¶ä¸į": 6796,
      "å¹¶çĲĨè§£": 6797,
      "æ°ĶåĽ¢": 6798,
      "åģ¿": 6799,
      "å®ĥèĥ½å¤Ł": 6800,
      "æ±Ĥè¯¥": 6801,
      "å¼ºåĪ¶": 6802,
      "æ´»åĮĸ": 6803,
      "ä½ľçĶ¨åĬĽ": 6804,
      "æİ¨èį": 6805,
      "æĪĳä»¬åİ»åħ¬åĽŃ": 6806,
      "Ġad": 6807,
      "ç»ıæµİä½ĵåĪ¶": 6808,
      "ç«ĭä½ĵ": 6809,
      "åħ±é¸£": 6810,
      "åıĬåħ¶ä½ľçĶ¨": 6811,
      "æĸ°ä¸ŃåĽ½": 6812,
      "æĢ»åĬ¨éĩı": 6813,
      "äºĮåıī": 6814,
      "ata": 6815,
      "æĥ³æ³ķ": 6816,
      "èĩªçĦ¶æķ°": 6817,
      "åīįä¸Ģé¡¹": 6818,
      "æĹłåħ³": 6819,
      "Ġch": 6820,
      "tiful": 6821,
      "åĲįç§°": 6822,
      "Ġwho": 6823,
      "é¢ĺçĽ®ä¸ŃçļĦ": 6824,
      "ç¾§": 6825,
      "è´ŁçĶµèį·": 6826,
      "éĢĴæİ¨": 6827,
      "éĢĴå½Ĵ": 6828,
      "Ġdi": 6829,
      "alue": 6830,
      "åĲĪçĲĨè§ĦåĪĴ": 6831,
      "éĺ³æŀģ": 6832,
      "éĺ³ç¦»åŃĲ": 6833,
      "ä»¥ä¸ĭåĩłä¸ª": 6834,
      "çļĦçĲĨè§£ä¸İ": 6835,
      "äº¤éĢļä¾¿åĪ©": 6836,
      "çĹĩ": 6837,
      "çº¿æĢ§æĸ¹ç¨ĭç»Ħ": 6838,
      "è¶Ĭé«ĺ": 6839,
      "åįĹåĮĹ": 6840,
      "ç¬¬äºĮæ¬¡": 6841,
      "åıĮæĸ¹": 6842,
      "æ°¨åŁºéħ¸": 6843,
      "set": 6844,
      "çī©ä½ĵçļĦè´¨éĩı": 6845,
      "åģıç¦»": 6846,
      "å·²ç»ıå®ĮæĪĲ": 6847,
      "åŃ£èĬĤæĢ§": 6848,
      "ä¸Ńå¤®éĽĨæĿĥåĪ¶åº¦": 6849,
      "æĻºèĥ½åĪĨæ®µ": 6850,
      "ä¾µèļĢ": 6851,
      "åŃ¦åĳĺå°Ĩèĥ½å¤Ł": 6852,
      "åĢ¾æĸľ": 6853,
      "åĲİç»ŃåĨĻ": 6854,
      "ress": 6855,
      "èĻļæĭŁè¯Ńæ°ĶæĿ¡ä»¶åı¥": 6856,
      "æĶ¿åħļåĪ¶åº¦": 6857,
      "æ¢¯åº¦ä¸ĭéĻįä¼ĺåĮĸ": 6858,
      "åıĤèĢĥç³»": 6859,
      "å°¤åħ¶æĺ¯": 6860,
      "éĻĪè¿°åı¥": 6861,
      "æĽ´æ·±åħ¥åľ°": 6862,
      "ç®Ńå¤´": 6863,
      "åī§çĥĪ": 6864,
      "åı¤åħ¸æ¦Ĥåŀĭ": 6865,
      "Ġåħ¸åŀĭä¾ĭé¢ĺä¸İè§£æŀĲ": 6866,
      "ç»Ŀå¯¹åĢ¼": 6867,
      "åı¤å¸ĮèħĬæ°ĳä¸»æĶ¿æ²»": 6868,
      "é²ľæĺİ": 6869,
      "è¾©è¯ģæ³ķ": 6870,
      "ä¸īå¤§æĪĺå½¹": 6871,
      "æĩĤ": 6872,
      "æº¶äºİæ°´": 6873,
      "å®ŀè·µæĺ¯è®¤è¯ĨçļĦåŁºç¡Ģ": 6874,
      "è¦ĨçĽĸ": 6875,
      "æİ¨èįĲ": 6876,
      "$$": 6877,
      "BçļĦ": 6878,
      "]^": 6879,
      "ak": 6880,
      "over": 6881,
      "par": 6882,
      "¿åĪ¶": 6883,
      "Ġä¸ª": 6884,
      "ĠéĢŁåº¦": 6885,
      "Ġè¯¥": 6886,
      "ĠèĢĥèĻĳ": 6887,
      "ĠçĨŁæĤī": 6888,
      "ãĢĤ\"": 6889,
      "åı¹": 6890,
      "åĴĮæĸ¹æ³ķ": 6891,
      "æĢĢ": 6892,
      "åľ¨çº¿": 6893,
      "åľ¨è¿Ļä¸ª": 6894,
      "è§£ç¦»": 6895,
      "æ³½": 6896,
      "è¦ģæ³¨æĦı": 6897,
      "çĽĽ": 6898,
      "ä¸İéĿŀçĽĳçĿ£åŃ¦ä¹ł": 6899,
      "ä½ĵåĨħ": 6900,
      "ä¸įåĩĨç¡®": 6901,
      "ç¡Ŀ": 6902,
      "æĪĸåºĶçĶ¨åľºæĻ¯": 6903,
      "çŃīå¤ļæĸ¹éĿ¢": 6904,
      "å¯¹æµģ": 6905,
      "è¿Ļä¸įä»ħ": 6906,
      "å®ŀçĶ¨": 6907,
      "çĲĨè§£ä¸º": 6908,
      "åı¯ä»¥ä»İ": 6909,
      "å¤§éĥ¨åĪĨ": 6910,
      "æıĲçĤ¼": 6911,
      "é«ĵ": 6912,
      "æ¸ł": 6913,
      "å®ĥçĶ±": 6914,
      "å®ĥå¼ºè°ĥ": 6915,
      "å®ĥæııè¿°äºĨ": 6916,
      "åįķä¸ª": 6917,
      "äº§éĺ¶çº§": 6918,
      "ç»ĵæŀĦçļĦ": 6919,
      "é¡¹æķ°": 6920,
      "ç¤¾ä¼ļåıĺéĿ©": 6921,
      "æł¹ç¦»åŃĲ": 6922,
      "åĪ©çİĩ": 6923,
      "æĸ°æĹ¶ä»£": 6924,
      "ä¸»è¦ģåĪĨä¸º": 6925,
      "åİ»éĻ¤": 6926,
      "æ¯ıå¹´": 6927,
      "æ¯ıæ¬¡": 6928,
      "å°±ä¼ļ": 6929,
      "æŃ£ç¡®åºĶçĶ¨": 6930,
      "åŃĹæķ°": 6931,
      "éľĢè¦ģç»ĵåĲĪ": 6932,
      "Ġso": 6933,
      "åĲ¦åĪĻ": 6934,
      "åīįéĿ¢": 6935,
      "å®ļçĲĨæİ¨å¯¼è¿ĩç¨ĭ": 6936,
      "åħĪè¿Ľ": 6937,
      "å¹³è¡¡å¸¸æķ°": 6938,
      "çĭĹ": 6939,
      "æĸĩç«łä¸Ń": 6940,
      "ç²¾ç®Ģ": 6941,
      "ä¿ĥè¿Ľç»ıæµİåıĳå±ķ": 6942,
      "æ¸©åº¦åĴĮ": 6943,
      "è§Ĩè§Ĵ": 6944,
      "riend": 6945,
      "åŃĺåľ¨äºİ": 6946,
      "ally": 6947,
      "ĠnRT": 6948,
      "éģĹä¼łåŃ¦": 6949,
      "å¤§å°ıä¸º": 6950,
      "ç®¡çĲĨåĽ½å®¶": 6951,
      "ä¸īè§Ĵåĩ½æķ°çļĦåĽ¾åĥı": 6952,
      "å®īè£ħ": 6953,
      "åľĨçļĦ": 6954,
      "æµ·æĭĶ": 6955,
      "è§ĤçĤ¹æĪĸ": 6956,
      "ç£ģåľºæĸ¹åĲĳ": 6957,
      "éĽ¨æŀĹ": 6958,
      "çĽĳæİ§": 6959,
      "ĠDNA": 6960,
      "ï¼ļ\\(\\": 6961,
      "æĤ²": 6962,
      "çĶµåĬ¿å·®": 6963,
      "æī¿æĭħ": 6964,
      "éĽ¶çĤ¹": 6965,
      "æĭīåĬĽ": 6966,
      "éļ¾ä»¥": 6967,
      "éļ¾æº¶": 6968,
      "ä»ĭè´¨æĹ¶": 6969,
      "æ²¿çĿĢ": 6970,
      "åģ¶åĩ½æķ°": 6971,
      "ĠâĪļ(": 6972,
      "åĬ³åĬ¨åĬĽ": 6973,
      "çĸĳéĹ®åı¥": 6974,
      "åģľæŃ¢": 6975,
      "æģ°å½ĵçļĦ": 6976,
      "ç¼ĸåĨĻç®ĢåįķçļĦ": 6977,
      "åĽ¾çīĩOCR": 6978,
      "å°ºåº¦": 6979,
      "äºĮæ¬¡æĸ¹ç¨ĭ": 6980,
      "å°½ç®¡": 6981,
      "å°ıæķ°çĤ¹": 6982,
      "Ġstore": 6983,
      "autiful": 6984,
      "æľīæľºåıįåºĶç±»åŀĭ": 6985,
      "GPUåĬłéĢŁè®¡ç®Ĺ": 6986,
      "èħĲèļĢ": 6987,
      "è¿ĩæĭŁåĲĪä¸İ": 6988,
      "èį¯çī©": 6989,
      "åĵĪå¸Į": 6990,
      "å¼¯æĽ²": 6991,
      "èĭ¥å¹²ä¸ª": 6992,
      "æ¹ĸæ³Ĭ": 6993,
      "æł¸ç³ĸä½ĵ": 6994,
      "umped": 6995,
      "Ġteacher": 6996,
      "çŀ¬": 6997,
      "èŀºæĹĭ": 6998,
      "éĢĹåı·": 6999,
      ")]": 7000,
      ")`": 7001,
      "Aa": 7002,
      "In": 7003,
      "It": 7004,
      "lis": 7005,
      "od": 7006,
      "èĸ": 7007,
      "Ġä¸Ģä¸ª": 7008,
      "Ġæ°´": 7009,
      "Ġæķ°æį®": 7010,
      "Ġè´¨éĩı": 7011,
      "Ġæııè¿°": 7012,
      "Ġä¸Ķ": 7013,
      "Ġè§£åĨ³": 7014,
      "Ġå¾ªçİ¯": 7015,
      "ĠéĵĿ": 7016,
      "ĠåħīåĲĪä½ľçĶ¨": 7017,
      "Ġçº¿ç²Ĵä½ĵ": 7018,
      "Ġç§ĳä¸¾åĪ¶åº¦": 7019,
      "Ġæĸĩèīºå¤įåħ´": 7020,
      "Ġè¯¯è®¤ä¸º": 7021,
      "çļĦå¯¹è±¡": 7022,
      "å¤¸": 7023,
      "ä¸ŃæľŁ": 7024,
      "åľ¨x": 7025,
      "è§£æĸ¹ç¨ĭ": 7026,
      "çŃĽ": 7027,
      "ä¼ĳ": 7028,
      "æľīçĿĢ": 7029,
      "æĪĲçļĦ": 7030,
      "çŃīå¤ļç§į": 7031,
      "çŃīæİªæĸ½": 7032,
      "éĶ¥": 7033,
      "éĶ»": 7034,
      "åıĳå°Ħ": 7035,
      "åı¯ä»¥æĽ´å¥½åľ°": 7036,
      "åİŁæĿ¥çļĦ": 7037,
      "æ´¥": 7038,
      "è°·": 7039,
      "æ¦Ĥå¿µçļĦçĲĨè§£": 7040,
      "çĽ¸åĩı": 7041,
      "èĩªè¡Į": 7042,
      "èĩªä¿¡": 7043,
      "èĩªæ²»": 7044,
      "å¤ļéĽ¨": 7045,
      "çº¿æ®µ": 7046,
      "éĿ¢ä¸´": 7047,
      "éľ²": 7048,
      "å°ıçļĦ": 7049,
      "ç»ĵæŀĦæĪĸ": 7050,
      "è½¬åŀĭ": 7051,
      "ä½¿çĶ¨çļĦ": 7052,
      "ç¤¾ä¼ļåıĳå±ķ": 7053,
      "ä¾ĭé¢ĺæĪĸåºĶçĶ¨åľºæĻ¯": 7054,
      "\\)ï¼Ī": 7055,
      "æĺ¯æĮĩæĶ¿åºľ": 7056,
      "å½ĵæĹ¶çļĦ": 7057,
      "å¢ŀåĩı": 7058,
      "éķ¿æ±Ł": 7059,
      "æ·±å±Ĥ": 7060,
      "æĿ¡ä»¶çļĦ": 7061,
      "çĥ·": 7062,
      "çī©ä½ĵä»İ": 7063,
      "å¤©ä½ĵ": 7064,
      "å¼ķåĩº": 7065,
      "éĢīæĭ©æŃ£ç¡®çļĦ": 7066,
      "è¯»åıĸ": 7067,
      "éľĢè¦ģéĢļè¿ĩ": 7068,
      "éĢļå¸¸åĮħæĭ¬": 7069,
      "è¯Ńè¨Ģé£İæł¼": 7070,
      "ç»´åº¦": 7071,
      "èģĶåĲĪ": 7072,
      "èģĶæĥ³": 7073,
      "è¯¥æ¨¡åĿĹ": 7074,
      "Ġfriend": 7075,
      "ä½įç½®çļĦ": 7076,
      "Ġwri": 7077,
      "æ¶ĪåĮĸ": 7078,
      "åĬŁèĥ½åĮº": 7079,
      "æĺ¯ä¸Ģç§įçī¹æ®ĬçļĦ": 7080,
      "æľªèĥ½": 7081,
      "è¶³çĲĥ": 7082,
      "our": 7083,
      "èĮ¶": 7084,
      "æĲ¬": 7085,
      "æ³ķå¾ĭæ³ķè§Ħ": 7086,
      "æµ·éĻĨ": 7087,
      "èĭ±è¯Ńè¯Ńæ³ķ": 7088,
      "èĨľä¸Ĭ": 7089,
      "çĶŁçī©åŃ¦": 7090,
      "äººç±»çļĦ": 7091,
      "1978": 7092,
      "å»ºç«ĭäºĨ": 7093,
      "åĮĢåĬłéĢŁ": 7094,
      "äºĭçī©æĪĸ": 7095,
      "åı¯ä»¥éĢļè¿ĩä»¥ä¸ĭ": 7096,
      "èģĮè´£": 7097,
      "æĤŁ": 7098,
      "ä½ľèĢħçļĦ": 7099,
      "çģµæ´»æĢ§": 7100,
      "æĺ¾èĳĹæıĲåįĩ": 7101,
      "è¶ĭåĲĳäºİ": 7102,
      "æ²īç§¯": 7103,
      "ç¤¾ä¼ļä¸»ä¹īå¸Ĥåľºç»ıæµİ": 7104,
      "éĢĨçŁ©éĺµ": 7105,
      "ç¼ĸç¨ĭè¯Ńè¨Ģ": 7106,
      "å¦¹": 7107,
      "chool": 7108,
      "ä¸ĸçºªåĪĿ": 7109,
      "ä¸ĸçºªæľ«": 7110,
      "çļĦæĢ»åĴĮ": 7111,
      "è¡Ģæ¶²": 7112,
      "äºĮæ°§åĮĸç¢³åĴĮæ°´": 7113,
      "çº¯åĩĢ": 7114,
      "çŃīæ¯Ķæķ°åĪĹçļĦ": 7115,
      "æĬ¥åĳĬ": 7116,
      "åłĤ": 7117,
      "æīĢéľĢçļĦ": 7118,
      "è¯įæł¹è®°å¿Ĩæ³ķ": 7119,
      "æľĢä¼ĺè§£": 7120,
      "èķ´": 7121,
      "æľīæīĢå¸®åĬ©": 7122,
      "Ġrain": 7123,
      "æ½ľåľ¨": 7124,
      "Ġhomework": 7125,
      "æ¨¡æĭŁéĹ®çŃĶç³»ç»ŁçļĦ": 7126,
      "æ¡¥æ¢ģ": 7127,
      "æķ£æĸĩçº¿ç´¢åĪĨæŀĲ": 7128,
      "åŃ©åŃĲ": 7129,
      "æĴ°åĨĻ": 7130,
      "è¿ĩæĭŁåĲĪä¸İæ¬łæĭŁåĲĪ": 7131,
      "120": 7132,
      "amp": 7133,
      "bra": 7134,
      "ie": 7135,
      "pen": 7136,
      "sup": 7137,
      "vB": 7138,
      "Ġç»ıæµİ": 7139,
      "ĠæĿ¡ä»¶": 7140,
      "Ġä¸»è¦ģ": 7141,
      "Ġen": 7142,
      "ĠéĽĨåĲĪ": 7143,
      "ĠæľĢåĲİ": 7144,
      "Ġæ¯Ķè¾ĥä¸įåĲĮ": 7145,
      "çļĦçī©çĲĨéĩı": 7146,
      "åħµ": 7147,
      "åĲ§": 7148,
      "æķ¬": 7149,
      "åĴĮH": 7150,
      "åĴĮä»İåı¥": 7151,
      "åĴĮæĶ¿çŃĸ": 7152,
      "åĴĮç§ĳåŃ¦": 7153,
      "åĴĮæ°¢æ°Ķ": 7154,
      "ä¸ŃåĢ¼å®ļçĲĨ": 7155,
      "æĺ¯å¦Ĥä½ķ": 7156,
      "æĺ¯åĮĸåŃ¦ä¸Ń": 7157,
      "ä¸Ģæĺ¯": 7158,
      "åĬ¨åĬĽåŃ¦": 7159,
      "ä¸İè®Ńç»ĥ": 7160,
      "åı¯å¯¼": 7161,
      "éĢļè¿ĩçĲĨè§£": 7162,
      "æĪĲåĽł": 7163,
      "æĪĲåĥı": 7164,
      "Ġ24": 7165,
      "è¿Ļæľ¬ä¹¦": 7166,
      "è¡¨åŀĭ": 7167,
      "å®ŀåľ°": 7168,
      "äººçĶŁ": 7169,
      "æ¦Ĥè¿°": 7170,
      "åı¯ä»¥è¢«": 7171,
      "åİŁå½¢": 7172,
      "å¹¶æıĲåĩº": 7173,
      "å¤§æ´ĭ": 7174,
      "ä¸ŃçļĦè¿ĲåĬ¨": 7175,
      "è°Ī": 7176,
      "å¹³ç§»": 7177,
      "å¤ļåħĥ": 7178,
      "å¤ļæ¬¡": 7179,
      "æĽ´æľī": 7180,
      "å¼ºå¤§çļĦ": 7181,
      "éĽĦ": 7182,
      "æľºåħ³": 7183,
      "Ġ\\((": 7184,
      "æµģéĢļ": 7185,
      "ä¸¤åĪĹ": 7186,
      "å¤įä¹ł": 7187,
      "è¿ĲåĬ¨æĹ¶": 7188,
      "æĺ¯æĮĩä¸Ģä¸ª": 7189,
      "Ġab": 7190,
      "æīĢåľ¨": 7191,
      "è¨Ģè®º": 7192,
      "æł¹æį®ä¸Ĭä¸ĭæĸĩ": 7193,
      "ç¼Ŀ": 7194,
      "äº¤äºĴ": 7195,
      "äºĮæĺ¯": 7196,
      "éĿŀåĲĮæºĲæŁĵèī²ä½ĵ": 7197,
      "ons": 7198,
      "ĠéĢļè¿ĩå®ŀéªĮ": 7199,
      "è¯»åĲİç»ŃåĨĻ": 7200,
      "orrow": 7201,
      "ä¹ĭéĹ´çļĦçĽ¸äºĴ": 7202,
      "äºĴæĸ¥": 7203,
      "ç½ĳé¡µ": 7204,
      "ä»·åĢ¼åĴĮ": 7205,
      "ä¿ĥè¿Ľç»ıæµİå¢ŀéķ¿": 7206,
      "åĩłç§į": 7207,
      "åĽŀè·¯": 7208,
      "åĪĴåĪĨä¸º": 7209,
      "è¿ĩåİ»å®ĮæĪĲæĹ¶": 7210,
      "å¸ĤåľºéľĢæ±Ĥ": 7211,
      "ç§ĳåŃ¦å®¶": 7212,
      "ĠPro": 7213,
      "å¸¸è§ģéĶĻè¯¯åıĬæ³¨æĦıäºĭé¡¹": 7214,
      "èº«é«ĺ": 7215,
      "åħħæĶ¾çĶµ": 7216,
      "ç³ĸæŀľ": 7217,
      "èĢĥå¯ŁåŃ¦çĶŁ": 7218,
      "æ¯Ķä¾ĭåħ³ç³»": 7219,
      "æłĩåĩĨå·®": 7220,
      "åķĨåĵģåĴĮæľįåĬ¡": 7221,
      "æĬĹä½ĵ": 7222,
      "æ±īåŃĹ": 7223,
      "å¤§æ°Ķä¸Ń": 7224,
      "å¤ļç§įè§£æ³ķ": 7225,
      "çĶ¨æĪ·ä½ĵéªĮ": 7226,
      "æľ«éĢŁåº¦": 7227,
      "åĪ»çĶ»": 7228,
      "è´¢æĶ¿æĶ¿çŃĸ": 7229,
      "åĭ¾": 7230,
      "åĽºå®ļçļĦ": 7231,
      "å¹³åĿĩåĢ¼": 7232,
      "å¹³åĿĩéĢŁåº¦": 7233,
      "æ·Ģç²ī": 7234,
      "ular": 7235,
      "unc": 7236,
      "åŃ¦åĳĺå°Ĩ": 7237,
      "è§£åĨ³éĹ®é¢ĺçļĦèĥ½åĬĽ": 7238,
      "èī¯å¥½": 7239,
      "åĬ³åĬ¨æĹ¶éĹ´": 7240,
      "æľ¬é¢ĺä¸»è¦ģèĢĥå¯ŁåŃ¦çĶŁå¯¹": 7241,
      "ABC": 7242,
      "éģįåİĨ": 7243,
      "éĺ´æŀģ": 7244,
      "è½¬åĬ¨æĥ¯": 7245,
      "æ³¢çļĦå¹²æ¶ī": 7246,
      "åĩĿç»ĵ": 7247,
      "æķıæĦŁ": 7248,
      "å¤§è¯Ńè¨Ģæ¨¡åŀĭæĬĢæľ¯ä¸Ń": 7249,
      "æ¸ĹéĢıåİĭ": 7250,
      "åĲŀåĻ¬": 7251,
      "å¤ļå¤´æ³¨æĦıåĬĽ": 7252,
      "ä»İä¸Ģç§įä»ĭè´¨": 7253,
      "çĴĥ": 7254,
      "çİ»çĴĥ": 7255,
      "èĤĮèĤī": 7256,
      "æĸ°ä¸ŃåĽ½æĪĲç«ĭ": 7257,
      "ç¡Ŀéħ¸": 7258,
      "éĶ»çĤ¼": 7259,
      "27": 7260,
      "BC": 7261,
      "PV": 7262,
      "lic": 7263,
      "we": 7264,
      "xçļĦ": 7265,
      "±¼": 7266,
      "Ïī": 7267,
      "èľ": 7268,
      "é±¼": 7269,
      "Ġä¸İ": 7270,
      "Ġæ¦Ĥå¿µ": 7271,
      "ĠåİĨåı²": 7272,
      "Ġæ£ĢæŁ¥": 7273,
      "ĠåĮĢåıĺéĢŁçĽ´çº¿è¿ĲåĬ¨": 7274,
      "Ġæłĩæ³¨": 7275,
      "çļĦéĩı": 7276,
      "çļĦå¹³è¡¡": 7277,
      "çļĦçĥŃéĩı": 7278,
      "çļĦè£ħç½®": 7279,
      "ç»³": 7280,
      "åŃĻ": 7281,
      "éĢĢ": 7282,
      "åĴĮä¸Ģä¸ª": 7283,
      "åĴĮç»ĵæŀĦ": 7284,
      "åĴĮç»ıæµİ": 7285,
      "åĴĮæ³ķå¾ĭ": 7286,
      "åĴĮå·¥ç¨ĭ": 7287,
      "æĺ¯æķ°åŃ¦": 7288,
      "åľ¨æŃ¤": 7289,
      "åĽĬ": 7290,
      "ä½ĵä¼ļ": 7291,
      "ä¸ªä¾ĭé¢ĺæĪĸåºĶçĶ¨åľºæĻ¯": 7292,
      "åı¯è¡Į": 7293,
      "éĢļè¿ĩè¿Ļä¸ª": 7294,
      "çŃīæĸ¹æ³ķ": 7295,
      "åľ°åŁŁ": 7296,
      "å¯¹åĽ½å®¶": 7297,
      "å¯¹æĬĹ": 7298,
      "è¿Ļåı¥è¯Ŀ": 7299,
      "çĶµå½±": 7300,
      "æĬ¼": 7301,
      "éĻµ": 7302,
      "æ¯«": 7303,
      "åıįå¯¹": 7304,
      "åıįåĲĳ": 7305,
      "å¹¶å°Ĩ": 7306,
      "å¹¶èĥ½å¤Ł": 7307,
      "åĬłå·¥": 7308,
      "æł¸å¿ĥåĨħå®¹": 7309,
      "éħµ": 7310,
      "æ°´åĪĨåŃĲ": 7311,
      "åĿ¡": 7312,
      "åĬ©è¯į": 7313,
      "Ġ\\)ï¼Į\\(": 7314,
      "ä¼łæĦŁ": 7315,
      "Ġap": 7316,
      "æ¨¡åŀĭæŀĦå»º": 7317,
      "æ¨¡åŀĭéĩıåĮĸ": 7318,
      "tem": 7319,
      "çĽ´åĪ°": 7320,
      "æł¹æį®é¢ĺæĦı": 7321,
      "èĭ·": 7322,
      "æĢ»éĩı": 7323,
      "äºĮç»´": 7324,
      "ç»ĨèĥŀåĻ¨": 7325,
      "ç©ºçĻ½": 7326,
      "å½¢æĪĲéħįåŃĲ": 7327,
      "å¸¦æľī": 7328,
      "ç»ĵåĲĪåħ·ä½ĵ": 7329,
      "æ¬¡æķ°": 7330,
      "åħ¶ä¸Ńa": 7331,
      "ren": 7332,
      "ä½Ĩåı¯ä»¥": 7333,
      "æīĭæľº": 7334,
      "åĽĽè¾¹å½¢": 7335,
      "æ¶Īæ¯Ĵ": 7336,
      "ç»ĵæŀľä¸º": 7337,
      "å£ģ": 7338,
      "å¯¹äºİä»»æĦı": 7339,
      "åĪĨåŃĲæĪĸ": 7340,
      "åįĬä¿ĿçķĻ": 7341,
      "è¿ĳä¹īè¯į": 7342,
      "çĪ¸": 7343,
      "åĬĽçļĦæĸ¹åĲĳ": 7344,
      "ç»ĥä¹łé¢ĺ": 7345,
      "ç§»åĬ¨åĪ°": 7346,
      "ĠåĪĨæŀĲä¸įåĲĮ": 7347,
      "åħ¬æ°ĳæĿĥåĪ©": 7348,
      "åĬ¨æĢģåıĺåĮĸ": 7349,
      "æľĪçĲĥ": 7350,
      "äººåı£å¯Ĩåº¦": 7351,
      "æłĩåĩĨçĬ¶åĨµ": 7352,
      "ä¿ĿæĬ¤çİ¯å¢ĥ": 7353,
      "å¡«åĨĻ": 7354,
      "Ġç»ĵåĲĪå®ŀéĻħ": 7355,
      "åıĮæĽ²çº¿": 7356,
      "æĺĵéĶĻçĤ¹ä¸İ": 7357,
      "éĿŀè°ĵè¯ŃåĬ¨è¯įä½ľå®ļè¯Ń": 7358,
      "è¿ĺèĥ½åŁ¹åħ»": 7359,
      "ays": 7360,
      "ä¸¥éĩį": 7361,
      "ä¸»åĬ¨è¯ŃæĢģ": 7362,
      "åĲĽä¸»åĪ¶": 7363,
      "åĢįä½ĵ": 7364,
      "æ°§åĮĸè¿ĺåİŁéħįå¹³": 7365,
      "è¿ŀç»ŃæĢ§": 7366,
      "æľªçŁ¥æķ°": 7367,
      "åįķè°ĥéĢĴå¢ŀ": 7368,
      "irst": 7369,
      "çĽĳçĿ£åŃ¦ä¹łä¸İéĿŀçĽĳçĿ£åŃ¦ä¹ł": 7370,
      "åı°é£İ": 7371,
      "çĽ´è§Ĥåľ°": 7372,
      "çº¯åĲĪ": 7373,
      "éĿŀéĩĳå±ŀæĢ§": 7374,
      "ä¸´çķĮ": 7375,
      "ç¦ıåĪ©": 7376,
      "åıĻè¿°": 7377,
      "çıŃçº§": 7378,
      "ä¼´æĢ§éģĹä¼łè§Ħå¾ĭ": 7379,
      "Ġthis": 7380,
      "Ġnew": 7381,
      "Ġtime": 7382,
      "ĠåĮħåĲ«èĩ³å°ĳ": 7383,
      "åĽĽåĪĻè¿Ĳç®Ĺ": 7384,
      "æĺĵéĶĻçĤ¹ä¸İéļ¾çĤ¹": 7385,
      "98": 7386,
      "Righ": 7387,
      "TC": 7388,
      "]\\)": 7389,
      "cess": 7390,
      "det": 7391,
      "ive": 7392,
      "ust": 7393,
      "ĠçĤ¹": 7394,
      "ĠæıĲä¾Ľ": 7395,
      "Ġæĺİç¡®": 7396,
      "Ġä»£åħ¥": 7397,
      "Ġè®°ä½ı": 7398,
      "çļĦåĴĮ": 7399,
      "çļĦåĽłç´ł": 7400,
      "çļĦåĩĨç¡®æĢ§": 7401,
      "çļĦä¹ĺç§¯": 7402,
      "çļĦæĹ¶åĢĻ": 7403,
      "ï¼ĮãĢĬ": 7404,
      "çĶ°": 7405,
      "ä»°": 7406,
      "åĴĮè¡Įä¸º": 7407,
      "æĺ¯å¯¹": 7408,
      "æĺ¯åŃ¦ä¹ł": 7409,
      "æĺ¯çĶ±äºİ": 7410,
      "åľ¨è¿Ľè¡Į": 7411,
      "åľ¨è¯¥": 7412,
      "çĲĨçĶ±": 7413,
      "Ġ\\{": 7414,
      "ä¸ºå®ŀçİ°": 7415,
      "Ġ->": 7416,
      "åĩī": 7417,
      "å¦Ĥæ¸©åº¦": 7418,
      "ï¼īï¼ļ**": 7419,
      "ï¼Ī\\(": 7420,
      "æĹ¶éĴĪ": 7421,
      "æľīå¸®åĬ©": 7422,
      "åįµ": 7423,
      "å¯¹è§Ĵ": 7424,
      "åŃĲæłĳ": 7425,
      "çĶµèĦĳ": 7426,
      "æĸĩä½ĵ": 7427,
      "åħ¬æľī": 7428,
      "åħ¬éĩĮ": 7429,
      "çºµ": 7430,
      "çº¹": 7431,
      "äººæķ°": 7432,
      "æĿ¥éªĮè¯ģ": 7433,
      "åĪĻè¯¥": 7434,
      "åı¯ä»¥åľ¨": 7435,
      "åı¯ä»¥å¢ŀå¼º": 7436,
      "åı¯ä»¥æĽ´å¥½åľ°çĲĨè§£": 7437,
      "åı¯ä»¥å¾ĹåĪ°": 7438,
      "å¹¶è¯´æĺİ": 7439,
      "æł¸å¿ĥè¦ģçĤ¹": 7440,
      "é«ĺèĮİ": 7441,
      "æ¸¯": 7442,
      "å¥¶": 7443,
      "éĿ¢åĲĳ": 7444,
      "æĪĳçļĦ": 7445,
      "æ´»åĬĽ": 7446,
      "åįķçĭ¬": 7447,
      "è®ºçĤ¹çļĦ": 7448,
      "ç»ĵæŀĦåĮĸ": 7449,
      "æĪĳä»¬æĿ¥": 7450,
      "è¿ĲåĬ¨åŃ¦": 7451,
      "åħĥç»Ħ": 7452,
      "è¡¨ç¤ºæĸ¹æ³ķ": 7453,
      "åŁºç¡Ģè®²è§£": 7454,
      "æ²»çĸĹ": 7455,
      "çĬ¯": 7456,
      "è¿ĺåĮħæĭ¬": 7457,
      "äºĮé¡¹å¼ıå®ļçĲĨ": 7458,
      "ç½®äºİ": 7459,
      "åı¯èĥ½éľĢè¦ģ": 7460,
      "ç»Ĩèĥŀä¸Ń": 7461,
      "æŀģç«¯": 7462,
      "æ¸©åĴĮ": 7463,
      "ç¡®ä¿Ŀæ¯ıä¸ª": 7464,
      "Ġschool": 7465,
      "ä¹ĭéĹ´çļĦè·Ŀç¦»": 7466,
      "çĶŁæ´»çļĦ": 7467,
      "Ġfrom": 7468,
      "Ġwal": 7469,
      "Ġwould": 7470,
      "çĬ¶æĢģä¸ĭ": 7471,
      "åħ·æľīéĩįè¦ģæĦıä¹ī": 7472,
      "è´ŁéĿ¢": 7473,
      "è®®éĻ¢": 7474,
      "è¿ĲçĶ¨è¿ĻäºĽ": 7475,
      "æ»´": 7476,
      "éĻįéĽ¨": 7477,
      "æİĴæĶ¾": 7478,
      "çĽ¸åħ³çŁ¥è¯Ĩ": 7479,
      "çĸı": 7480,
      "æ¯Ķå¦Ĥä½ł": 7481,
      "æ°ĶåĢĻåĴĮ": 7482,
      "åĲįè¯įçŁŃè¯Ń": 7483,
      "åĨĻä½ľæĬĢå·§": 7484,
      "Ġnot": 7485,
      "Ġname": 7486,
      "åĨľæĿĳ": 7487,
      "æĳĦ": 7488,
      "çĲĨè®ºåŁºç¡Ģ": 7489,
      "çļĦæ¦Ĥå¿µåıĬåħ¶": 7490,
      "èĻļæķ°": 7491,
      "é¥Ń": 7492,
      "æ°ĳä¸»åĪ¶åº¦": 7493,
      "æ°ĳä¸»éĿ©åĳ½": 7494,
      "èĢĥå¯Łå¯¹": 7495,
      "åĨ·æĪĺ": 7496,
      "éĺ²å¾¡": 7497,
      "è¡¨è¾¾å¼ıä¸º": 7498,
      "åľ¨å®ŀéĻħçĶŁæ´»ä¸ŃçļĦåºĶçĶ¨": 7499,
      "ç¬¬äºĮä¸ª": 7500,
      "åĬ¨éĩıå®ĪæģĴ": 7501,
      "å®¾è¯Ńä»İåı¥": 7502,
      "æŀĦæĪĲçļĦ": 7503,
      "æĽ²çº¿è¿ĲåĬ¨": 7504,
      "âĪļ": 7505,
      "ç»ĨèĬĤæııåĨĻ": 7506,
      "æ·±åº¦åŃ¦ä¹łæ¨¡åŀĭ": 7507,
      "åģ¶æķ°": 7508,
      "ĠçŁ¥è¯ĨçĤ¹èģĶç³»": 7509,
      "ç»ĦæĪĲçļĦéĽĨåĲĪ": 7510,
      "æ¥ļ": 7511,
      "èĭ±åĽ½åĲĽä¸»ç«ĭå®ªåĪ¶": 7512,
      "çĶ·çĶŁ": 7513,
      "å°½éĩı": 7514,
      "æĻ¶ä½ĵ": 7515,
      "æ°¯åĮĸéĴł": 7516,
      "å¼§åº¦": 7517,
      "ç§ĭå¤©": 7518,
      "è¿ģç§»": 7519,
      "æ³°åĭĴ": 7520,
      "è®°å¿ĥéĹ´": 7521,
      "åħ¬åħĥåīį": 7522,
      "è®°åıĻæĸĩ": 7523,
      "Ġæķ°åŃ¦åħ¬å¼ıä½¿çĶ¨LaTeXè¯Ńæ³ķ": 7524,
      "Excel": 7525,
      "çŁ¥è¯Ĩç½ĳç»ľä½ĵç³»": 7526,
      "éº¦": 7527,
      "Ġfinis": 7528,
      "æĮīåĬ³åĪĨéħį": 7529,
      "æ´»åĮĸèĥ½": 7530,
      "partial": 7531,
      "æ¸łéģĵ": 7532,
      "brary": 7533,
      "Ġæłĩæ³¨å¸¸è§ģéĶĻè¯¯åĴĮæ³¨æĦıäºĭé¡¹": 7534,
      "Rightarrow": 7535,
      "-|": 7536,
      "ML": 7537,
      "RC": 7538,
      "mv": 7539,
      "mbd": 7540,
      "oy": 7541,
      "pm": 7542,
      "Ã·": 7543,
      "åĺ": 7544,
      "ĠçŃī": 7545,
      "Ġæł¸å¿ĥæ¦Ĥå¿µ": 7546,
      "ĠæŃ¤": 7547,
      "ĠéĴł": 7548,
      "Ġå»ºç«ĭ": 7549,
      "Ĳå¦¹": 7550,
      "çļĦå¼Ģ": 7551,
      "çļĦæŃ£ç¡®": 7552,
      "çļĦçŁ¥è¯ĨçĤ¹": 7553,
      "çļĦæĸĩåŃĹ": 7554,
      "çļĦåīįæıĲ": 7555,
      "æľµ": 7556,
      "åĴĮéĢŁåº¦": 7557,
      "åĴĮå¤ĦçĲĨ": 7558,
      "åĴĮè®Ńç»ĥ": 7559,
      "åĴĮç®¡çĲĨ": 7560,
      "æĺ¯æ¤įçī©": 7561,
      "åľ¨éĿ¢å¯¹": 7562,
      "ï¼ī=": 7563,
      "æĢ§æ°Ķåĳ³": 7564,
      "ä»¥äººæ°ĳ": 7565,
      "ä»¥ä¾¿": 7566,
      "ä½ĵèĤ²": 7567,
      "èĢĲ": 7568,
      "æĹ¶éľĢè¦ģ": 7569,
      "ä¸įéľĢè¦ģ": 7570,
      "æŃ§": 7571,
      "åı¯è¯»": 7572,
      "éĢļè¿ĩä½¿çĶ¨": 7573,
      "éĢļè¿ĩç»ĥä¹ł": 7574,
      "éĢļè¿ĩåħīåĲĪä½ľçĶ¨": 7575,
      "Ġ11": 7576,
      "Ġ18": 7577,
      "åĲĪéĩĳ": 7578,
      "è¿Ļä¸¤ç§į": 7579,
      "åŁºçŁ³": 7580,
      "äººä¸İ": 7581,
      "åıĳåĩº": 7582,
      "è½Ń": 7583,
      "å¹¶éĿŀ": 7584,
      "å¤§æĦı": 7585,
      "åĩºè¡Į": 7586,
      "ä¸ĭéĿ¢çļĦ": 7587,
      "ä»İå·¦": 7588,
      "ä¹ĭæ¯Ķ": 7589,
      "åĲİç¼Ģ": 7590,
      "è¾¾èĬ¬å¥ĩ": 7591,
      "èĢĮä¸Ķ": 7592,
      "åħ³ç³»åĪ°": 7593,
      "åħ³éĶ®è§ĦåĪĻ": 7594,
      "æĦŁåı¹": 7595,
      "å·¥èīº": 7596,
      "è§Ĵåħ¬å¼ı": 7597,
      "åħ±è½Ń": 7598,
      "æĹ¶éĹ´çĤ¹": 7599,
      "æĸ°ä¸ŃåĽ½çļĦ": 7600,
      "çī©ä½ĵè¿ĲåĬ¨": 7601,
      "éĿŀä¿Ŀå®Ī": 7602,
      "æ¯ıä¸Ģä¸ª": 7603,
      "åĽ½å®¶åıĳå±ķ": 7604,
      "åĽ½å®¶ç»Łä¸Ģ": 7605,
      "ä¹Łåı¯ä»¥": 7606,
      "æĽ´å¥½åľ°è®¤è¯Ĩ": 7607,
      "åĲĦçī©è´¨çļĦ": 7608,
      "æĹłåģ¿": 7609,
      "èµ·ä¹ī": 7610,
      "æĸĩåĮĸèĥĮæĻ¯": 7611,
      "å§Ĳå¦¹": 7612,
      "ence": 7613,
      "ĠAPI": 7614,
      "çļĦåŁºç¡Ģæ¦Ĥå¿µ": 7615,
      "å¾®ç²Ĵ": 7616,
      "å§ĭçļĩ": 7617,
      "Ġpass": 7618,
      "éĩĳå±ŀæĿĲæĸĻ": 7619,
      "çĸĨ": 7620,
      "ello": 7621,
      "åĬłéĢŁåº¦ä¸º": 7622,
      "æ·±åħ¥è®²è§£": 7623,
      "çİ°ä»£ç¤¾ä¼ļ": 7624,
      "éģĹä¼łçī©è´¨": 7625,
      "çŃĶæ¡Īæĺ¯": 7626,
      "æİ¨çĲĨé¢ĺ": 7627,
      "å¹²æī°": 7628,
      "åĶ±": 7629,
      "ç®ĢåįķçļĦä¾ĭåŃĲ": 7630,
      "æľīæľºåĮĸåĲĪçī©": 7631,
      "ç©ºæ°Ķä¸ŃçļĦ": 7632,
      "åĬ¨èĥ½åıĺåĮĸ": 7633,
      "èĳĹåĲį": 7634,
      "æīĵçł´": 7635,
      "åħĭæľį": 7636,
      "ä½ľèĢħæĦıåĽ¾": 7637,
      "å¤§æ°Ķè¿ĲåĬ¨": 7638,
      "å¯¹æ¯ĶåĪĨæŀĲ": 7639,
      "é»ĺ": 7640,
      "å¤įæķ°å½¢å¼ı": 7641,
      "ç¤¾ä¼ļä¸»ä¹īæł¸å¿ĥä»·åĢ¼è§Ĥ": 7642,
      "æĺłå°Ħ": 7643,
      "å²ģ": 7644,
      "Ġres": 7645,
      "ä»£æķ°è¿Ĳç®Ĺ": 7646,
      "ä¸Ńå¿ĥæĢĿæĥ³": 7647,
      "äº§åĵģçļĦ": 7648,
      "ä¸ŃåĽ½åħ±äº§åħļçļĦé¢Ĩå¯¼": 7649,
      "è¡ĢæµĨ": 7650,
      "str": 7651,
      "å¿ħè¦ģåĬ³åĬ¨æĹ¶éĹ´": 7652,
      "çļĦåİĨåı²èĥĮæĻ¯": 7653,
      "ç§¦å§ĭçļĩ": 7654,
      "éħįåŃĲä¸Ń": 7655,
      "lambd": 7656,
      "æĢ§çĬ¶çļĦ": 7657,
      "åħįçĸ«ç³»ç»Ł": 7658,
      "åľ¨æ°´ä¸ŃçļĦ": 7659,
      "æ½®": 7660,
      "åĪºæ¿ĢæĢ§æ°Ķåĳ³": 7661,
      "åĨħå¿ĥä¸ĸçķĮ": 7662,
      "æĺİæ¸ħæĹ¶æľŁ": 7663,
      "åı¦ä¸Ģç§įä»ĭè´¨æĹ¶": 7664,
      "æµªè´¹": 7665,
      "åĽ½å®¶æĪĸåľ°åĮº": 7666,
      "åĪ¤åĪ«å¼ı": 7667,
      "ä»¥ä¸ĭåĩłçĤ¹": 7668,
      "åĦĴå®¶": 7669,
      "ize": 7670,
      "æ¯Ľæ³½": 7671,
      "è§£çłģåĻ¨ç»ĵæŀĦ": 7672,
      "èĩªçĶ±èĲ½ä½ĵè¿ĲåĬ¨": 7673,
      "åĩ¸éĢıéķľ": 7674,
      "åħīçļĦæĬĺå°Ħå®ļå¾ĭ": 7675,
      "éĵħç¬Ķ": 7676,
      "çĹħåİŁä½ĵ": 7677,
      "æ³ĽåĮĸèĥ½åĬĽ": 7678,
      "èĩªè¡Įè½¦": 7679,
      "è½¬åĬ¨æĥ¯éĩı": 7680,
      "æĬ¼éŁµ": 7681,
      "lambda": 7682,
      "æ¯Ľæ³½ä¸ľ": 7683,
      "22": 7684,
      "Hello": 7685,
      "PPT": 7686,
      "ff": 7687,
      "ij": 7688,
      "nä¸ª": 7689,
      "xy": 7690,
      "å´": 7691,
      "ĠæĪĳ": 7692,
      "Ġro": 7693,
      "Ġéĵģ": 7694,
      "Ġåħ³æ³¨": 7695,
      "Ġè¾ĵåĩº": 7696,
      "Ġçī©è´¨çļĦéĩı": 7697,
      "Ġè¡ĮåĪĹå¼ı": 7698,
      "Ġè¾Ľäº¥éĿ©åĳ½": 7699,
      "ħéĩĮ": 7700,
      "çļĦè¡¨è¾¾": 7701,
      "çļĦç¦»åŃĲ": 7702,
      "çļĦçĶµæµģ": 7703,
      "åĴĮå·®": 7704,
      "ä¸Ńè¿Ľè¡Į": 7705,
      "åľ¨å¤§è¯Ńè¨Ģæ¨¡åŀĭæĬĢæľ¯ä¸Ń": 7706,
      "ä¸Ģå¤©": 7707,
      "æŀ¢": 7708,
      "ä¸ºåŁºç¡Ģ": 7709,
      "å®ļåĪĻ": 7710,
      "é¢ģ": 7711,
      "å¹ķ": 7712,
      "éĢļè¯»": 7713,
      "æĹ¶éľĢ": 7714,
      "éĩıåıĺ": 7715,
      "éĢļè¿ĩåĲĪçĲĨ": 7716,
      "Ġ1000": 7717,
      "æĪĸç»ĵæŀľ": 7718,
      "æĪĸæľįåĬ¡": 7719,
      "æĪĸåĩıå°ĳ": 7720,
      "æĪĲçĨŁ": 7721,
      "åŃĲéĩĮ": 7722,
      "è¿Ļæĺ¯ä¸Ģä¸ª": 7723,
      "åħ¶å¯¹": 7724,
      "åħ¶åŁºæľ¬": 7725,
      "çĶµéĩı": 7726,
      "å®ŀä½ĵ": 7727,
      "å®ŀæĹ¶": 7728,
      "çİ°æľī": 7729,
      "åıĳåĬ¨": 7730,
      "åıĳæķ£": 7731,
      "æĿ¥è§£åĨ³": 7732,
      "åĪĻä¼ļ": 7733,
      "åĪ¶çº¦": 7734,
      "åı¯ä»¥å®ŀçİ°": 7735,
      "å¹¶æıĲä¾Ľ": 7736,
      "ä¸ĭä¸Ģ": 7737,
      "çĽ¸å¹²": 7738,
      "å®ĥä¼ļ": 7739,
      "å¥ĳ": 7740,
      "åıįåºĶç±»åŀĭ": 7741,
      "ç½¢": 7742,
      "èĢĮå¿½çķ¥": 7743,
      "å°ıç»Ħ": 7744,
      "è¿ĻäºĽä¿¡æģ¯": 7745,
      "ç¬ĳ": 7746,
      "ä¸¤æŀģ": 7747,
      "æİ¨å¹¿": 7748,
      "æİ¨æģ©": 7749,
      "ä¸ŃåĽ½çī¹èī²ç¤¾ä¼ļä¸»ä¹ī": 7750,
      "å½ĵæĹ¶": 7751,
      "æ¨¡åŀĭè¿Ľè¡Į": 7752,
      "å¾Ĺä½ĵ": 7753,
      "æīĢåŃ¦çŁ¥è¯Ĩ": 7754,
      "åģļæ³ķ": 7755,
      "çĦ¶èĢĮ": 7756,
      "åħ¨éĥ¨": 7757,
      "åħ¨éĽĨ": 7758,
      "åĮĸåŃ¦åıĺåĮĸ": 7759,
      "æŃ¤åİ»": 7760,
      "ç©ºä¸Ń": 7761,
      "éĥ¨åĪĨç»ĦæĪĲ": 7762,
      "åĽ½å®¶æĿĥåĬĽ": 7763,
      "å¹´è½»": 7764,
      "çļĦåŁºæľ¬åİŁåĪĻ": 7765,
      "èĩªçĦ¶å¸¦": 7766,
      "èĩªçĦ¶èµĦæºĲ": 7767,
      "åīįæľŁ": 7768,
      "åĲĦåĽ½": 7769,
      "Ġcomp": 7770,
      "read": 7771,
      "çİ¯å¢ĥåıĺåĮĸ": 7772,
      "èµ·ä¼ı": 7773,
      "åį³ä½¿": 7774,
      "åĥļ": 7775,
      "å§ĵ": 7776,
      "åĪĿæľŁ": 7777,
      "æīĭå·¥ä¸ļ": 7778,
      "çī¹å®ļä»»åĬ¡": 7779,
      "ä¼ĺåĮĸçĲĨè®º": 7780,
      "äººæ°ĳè§£æĶ¾åĨĽ": 7781,
      "æ»¤": 7782,
      "åģĩè®¾æŁĲ": 7783,
      "Ġå¸¸è§ģèĢĥæ³ķåĮħæĭ¬": 7784,
      "ouse": 7785,
      "å®ŀéªĮè®¾è®¡": 7786,
      "å®ŀéªĮéªĮè¯ģ": 7787,
      "å·¥ä¸ļåĮº": 7788,
      "å¡Ķ": 7789,
      "åĨĻä½ľåĴĮ": 7790,
      "åĨĻä½ľèĥ½åĬĽ": 7791,
      "åĸ·": 7792,
      "è¾¹çķĮ": 7793,
      "æĳĨ": 7794,
      "æ¶īåıĬåĪ°": 7795,
      "å®ŀè·µä¸Ń": 7796,
      "çļĦçĲĨè§£èĥ½åĬĽ": 7797,
      "å¢ŀåĬłäºĨ": 7798,
      "åıĤä¸İåĽ½å®¶": 7799,
      "èĻļéĥ¨": 7800,
      "è®©è¯»èĢħ": 7801,
      "Ġgre": 7802,
      "ester": 7803,
      "èĥĮæĻ¯ä¿¡æģ¯": 7804,
      "è¿Ĳç®Ĺè§ĦåĪĻ": 7805,
      "å®ĺåĥļ": 7806,
      "ç¼ºçĤ¹": 7807,
      "æĭīæł¼": 7808,
      "æķħäºĭæĥħèĬĤ": 7809,
      "è¶ĭè¿ĳ": 7810,
      "åºĵä»ĳ": 7811,
      "æ¤įçī©çļĦ": 7812,
      "çļĦæķ°æį®éĽĨ": 7813,
      "éĢıè§Ĩ": 7814,
      "åĮºéĹ´åĨħ": 7815,
      "æ¹¾": 7816,
      "èµıæŀĲ": 7817,
      "åĬłå¼ºä¸Ńå¤®éĽĨæĿĥ": 7818,
      "åĢįæķ°": 7819,
      "ç´§å¼ł": 7820,
      "ide": 7821,
      "cept": 7822,
      "çī¹åĪ«æĺ¯åľ¨": 7823,
      "æ°¢æ°ĶåĴĮ": 7824,
      "çĦ¦èĢ³": 7825,
      "åįłæį®": 7826,
      "é¼ł": 7827,
      "å½¼å°Ĩ": 7828,
      "çĥŃå¸¦éĽ¨æŀĹ": 7829,
      "çĻ¾åĪĨ": 7830,
      "Ġè¿Ļåı¥è¯Ŀ": 7831,
      "çĪ¶äº²": 7832,
      "å¹³è¡ĮåĽĽè¾¹å½¢": 7833,
      "åĢ¾åĲĳ": 7834,
      "åµĮåħ¥": 7835,
      "åµĮå¥Ĺ": 7836,
      "å·¥ä¸ļçĶŁäº§ä¸Ń": 7837,
      "åĮĸåŃ¦èĥ½è½¬åĮĸä¸º": 7838,
      "å®ĭåħĥ": 7839,
      "è¡°åĩı": 7840,
      "åŃ¤çĭ¬": 7841,
      "STM": 7842,
      "ç¯®çĲĥ": 7843,
      "ä¹ĥèĩ³": 7844,
      "ä¸»è¯ŃåĴĮè°ĵè¯Ń": 7845,
      "Ġplay": 7846,
      "é²ģæ£Ĵ": 7847,
      "å®ļçĲĨçļĦæİ¨å¯¼è¿ĩç¨ĭ": 7848,
      "èģļåĲĪéħ¶": 7849,
      "å½»åºķ": 7850,
      "æµģåĬ¨éķ¶åµĮæ¨¡åŀĭ": 7851,
      "åĭ¾èĤ¡": 7852,
      "ä¼łæĦŁåĻ¨": 7853,
      "esterday": 7854,
      ")ãĢģ": 7855,
      "Phi": 7856,
      "QL": 7857,
      "Sc": 7858,
      "aâĤĻ": 7859,
      "cap": 7860,
      "dx": 7861,
      "so": 7862,
      "}^-": 7863,
      "é¹": 7864,
      "Ġç»ĵ": 7865,
      "Ġä¸¤ä¸ª": 7866,
      "ĠOH": 7867,
      "Ġç»ĵè®º": 7868,
      "Ġå¤įæķ°": 7869,
      "ĠéĢīæĭ©åĲĪéĢĤçļĦ": 7870,
      "Ġlog": 7871,
      "ĠNaCl": 7872,
      "Įè±Ĩ": 7873,
      "çļĦæķ°": 7874,
      "çļĦæĸ°": 7875,
      "çļĦä»İåı¥": 7876,
      "çļĦç£ģéĢļéĩı": 7877,
      "åħ¼": 7878,
      "äº¿": 7879,
      "éĢ¼": 7880,
      "å¼Ł": 7881,
      "ä¸ŃçĶ¨äºİ": 7882,
      "åľ¨é«ĺæ¸©": 7883,
      "åľ¨è¯¥çĤ¹": 7884,
      "ä¸Ģè¾Ĩ": 7885,
      "**ï¼ļ\\(": 7886,
      "çĽĴ": 7887,
      "æĢ§éĹ®é¢ĺ": 7888,
      "ä¸ªä½ĵçļĦ": 7889,
      "éĹ»": 7890,
      "æľīæĹ¶": 7891,
      "æľīåĵªäºĽ": 7892,
      "åįļ": 7893,
      "æĪĸäºĭä»¶": 7894,
      "è¾½": 7895,
      "ä½ľåĩº": 7896,
      "éĩįç§¯åĪĨ": 7897,
      "åŁºè°ĥ": 7898,
      "åĲĮç±»": 7899,
      "äººä¸º": 7900,
      "æĭį": 7901,
      "æĥĬ": 7902,
      "åĵ¦": 7903,
      "åı¯ä»¥çľĭ": 7904,
      "åºĶçĶ¨é¢ĺ": 7905,
      "åºĶçĶ¨å®ŀä¾ĭ": 7906,
      "åĲĳä¸ĬçļĦ": 7907,
      "æ·ĭ": 7908,
      "éĥ¡": 7909,
      "æ²¸": 7910,
      "æ±Ĥåħ¶": 7911,
      "æĺİå¤©": 7912,
      "åĩ½æķ°çļĦåŁºæľ¬æĢ§è´¨": 7913,
      "è±Įè±Ĩ": 7914,
      "è¿Ľè¡Įç»¼åĲĪ": 7915,
      "ç»ĨèıĮ": 7916,
      "Ġ40": 7917,
      "è§ĴéĢŁåº¦": 7918,
      "æİ¥åı£": 7919,
      "éļĭ": 7920,
      "è¿ĺä¿ĥè¿ĽäºĨ": 7921,
      "åıĬåħ¶çī¹çĤ¹": 7922,
      "ç»ĨèĥŀéĢļè¿ĩ": 7923,
      "éĵµ": 7924,
      "ong": 7925,
      "ĠéĢļè¿ĩä¸Ĭè¿°": 7926,
      "åĽ½å®¶ä¸»æĿĥ": 7927,
      "orld": 7928,
      "Ġsome": 7929,
      "çļĦåŁºæľ¬çŁ¥è¯Ĩ": 7930,
      "éĢļå¸¸ä¸º": 7931,
      "åĲĦç±»": 7932,
      "Ġcm": 7933,
      "tive": 7934,
      "é¢ĦæĬ¥": 7935,
      "éĢ»è¾ĳæ¸ħæĻ°": 7936,
      "å¹³è¡¡ä½įç½®": 7937,
      "äºĨè§£è¿ĻäºĽ": 7938,
      "åİĨåı²åıĳå±ķ": 7939,
      "åİĨåı²ä¸ĬçļĦ": 7940,
      "ç«łèĬĤ": 7941,
      "å¤įæĿĤéĹ®é¢ĺ": 7942,
      "çİ°åľ¨å®ĮæĪĲæĹ¶": 7943,
      "ç²¾åº¦": 7944,
      "å¾®è§Ĥ": 7945,
      "éĩĳå±ŀåħĥç´ł": 7946,
      "æ¸©åº¦ä¸ĭ": 7947,
      "çĽ¸åħ³éĹ®é¢ĺ": 7948,
      "åĪĨè§£èĢħ": 7949,
      "ä¾Ŀæ¬¡": 7950,
      "æ³¢åľ¨": 7951,
      "éģ¿åħįåĽł": 7952,
      "æµĵåº¦åıĺåĮĸ": 7953,
      "åĤħéĩĮ": 7954,
      "æ¼ł": 7955,
      "çĽ¸äºĴåħ³ç³»": 7956,
      "åľĨéĶ¥": 7957,
      "ĊĠĠĠĊĠĠ": 7958,
      "çļĦæ¦Ĥå¿µä¸İåİŁçĲĨ": 7959,
      "çĭ¬ç«ĭæĢ§": 7960,
      "çľŁæŃ£": 7961,
      "æĪĳä»¬åı¯ä»¥éĢļè¿ĩ": 7962,
      "è®°å¿Ĩè¦ģçĤ¹": 7963,
      "èĥĮæĻ¯ä¸ĭ": 7964,
      "è¯·è®¡ç®Ĺ": 7965,
      "åŁİå¸ĤåĬŁèĥ½åĪĨåĮº": 7966,
      "ç©ºæ°Ķéĺ»åĬĽ": 7967,
      "åĨ³çŃĸè¿ĩç¨ĭ": 7968,
      "å¿«éĢŁå¢ŀéķ¿": 7969,
      "æķĻèĤ²åĨħå®¹çĶŁæĪĲ": 7970,
      "åįıåķĨ": 7971,
      "è¢«åĬ¨åı¥": 7972,
      "æĺ¯ä¸ŃåĽ½è¿ĳä»£åı²": 7973,
      "çļĦæ¦Ĥçİĩä¸º": 7974,
      "Ġç»ĵåĲĪåħ¶ä»ĸ": 7975,
      "æľºåĻ¨åŃ¦ä¹łæ¨¡åŀĭ": 7976,
      "Â°ãĢĤ": 7977,
      "ç»´æĬ¤ç¤¾ä¼ļç¨³å®ļ": 7978,
      "ÏĢr": 7979,
      "æĬ½æł·": 7980,
      "é¡¹çĽ®ä¸Ń": 7981,
      "å¼ķå¯¼è¯į": 7982,
      "ä½ľæĸĩå®¡é¢ĺç«ĭæĦı": 7983,
      "ä»ĭè´¨ä¸Ń": 7984,
      "ild": 7985,
      "çļĦæĢ»åĬŁ": 7986,
      "Ġâī¥": 7987,
      "180": 7988,
      "åĿļå®ŀåŁºç¡Ģ": 7989,
      "æīĵä¸ĭåŁºç¡Ģ": 7990,
      "äºļçĥŃå¸¦": 7991,
      "è¯´è¯ĿèĢħ": 7992,
      "é¼ĵåĬ±åŃ¦çĶŁ": 7993,
      "èĦīç»ľ": 7994,
      "æŀģå¤§åľ°": 7995,
      "è½½ä½ĵèĽĭçĻ½": 7996,
      "æĬµæĬĹ": 7997,
      "æľĹæĹ¥": 7998,
      "è¿Ļç±»é¢ĺçĽ®": 7999
    },
    "merges": [
      [
        "ï",
        "¼"
      ],
      [
        "ä",
        "¸"
      ],
      [
        "ã",
        "Ģ"
      ],
      [
        "ç",
        "ļ"
      ],
      [
        "çļ",
        "Ħ"
      ],
      [
        "ï¼",
        "Į"
      ],
      [
        "ãĢ",
        "Ĥ"
      ],
      [
        "*",
        "*"
      ],
      [
        "å",
        "ı"
      ],
      [
        "å",
        "ħ"
      ],
      [
        "å",
        "Ī"
      ],
      [
        "ç",
        "Ķ"
      ],
      [
        "ä",
        "º"
      ],
      [
        "ï¼",
        "ļ"
      ],
      [
        "è",
        "¿"
      ],
      [
        "ä",
        "»"
      ],
      [
        "å",
        "®"
      ],
      [
        "è",
        "¯"
      ],
      [
        "ä",
        "½"
      ],
      [
        "å",
        "Ĭ"
      ],
      [
        "å",
        "ľ"
      ],
      [
        "ç",
        "»"
      ],
      [
        "æ",
        "ľ"
      ],
      [
        "å",
        "Ĳ"
      ],
      [
        "è",
        "§"
      ],
      [
        "æ",
        "ĺ"
      ],
      [
        "å",
        "Ń"
      ],
      [
        "#",
        "#"
      ],
      [
        "é",
        "Ģ"
      ],
      [
        "Ġ",
        "**"
      ],
      [
        "å",
        "º"
      ],
      [
        "ä",
        "¹"
      ],
      [
        "å",
        "¤"
      ],
      [
        "æ",
        "Ī"
      ],
      [
        "æ",
        "ķ"
      ],
      [
        "æ",
        "ĸ"
      ],
      [
        "å",
        "¼"
      ],
      [
        "å",
        "Ĵ"
      ],
      [
        "åĴ",
        "Į"
      ],
      [
        "ä¸",
        "Ń"
      ],
      [
        "è",
        "®"
      ],
      [
        "æ",
        "Ģ"
      ],
      [
        "æĺ",
        "¯"
      ],
      [
        "â",
        "Ģ"
      ],
      [
        "å",
        "Į"
      ],
      [
        "é",
        "ĩ"
      ],
      [
        "ãĢ",
        "ģ"
      ],
      [
        "çĶ",
        "¨"
      ],
      [
        "¦",
        "Ĥ"
      ],
      [
        "ç",
        "Ĳ"
      ],
      [
        "åľ",
        "¨"
      ],
      [
        "ä¸",
        "Ģ"
      ],
      [
        "è",
        "¡"
      ],
      [
        "å",
        "Ľ"
      ],
      [
        "å",
        "¿"
      ],
      [
        "è",
        "ĥ"
      ],
      [
        "æķ",
        "°"
      ],
      [
        "çĲ",
        "Ĩ"
      ],
      [
        "è§",
        "£"
      ],
      [
        "å",
        "¸"
      ],
      [
        "Ġ",
        "\\"
      ],
      [
        "åĪ",
        "Ĩ"
      ],
      [
        "æ",
        "°"
      ],
      [
        "æ",
        "Ĺ"
      ],
      [
        "æ",
        "³"
      ],
      [
        "**",
        "ï¼ļ"
      ],
      [
        "æ",
        "ŀ"
      ],
      [
        "ä¸",
        "º"
      ],
      [
        "å",
        "¯"
      ],
      [
        "ç",
        "ī"
      ],
      [
        "Ġ",
        "-"
      ],
      [
        "è¿",
        "ĩ"
      ],
      [
        "¾",
[...]
